Ġ. 788425616
Ġ, 428155660
Ġoch 338825087
Ġi 278769967
Ġatt 270034369
ĠÃ¤r 190799690
Ġsom 185123124
ĠpÃ¥ 176174155
Ġen 174142574
Ġdet 160441290
Ġ- 151419334
ĠfÃ¶r 138788379
Ġmed 137571439
Ġav 134251599
Ġtill 115877893
Ġhar 107680659
Ġden 87557751
Ġinte 86233027
Ġom 81250606
Ġett 73549893
Ġjag 73469611
Ġde 71339093
Ġ" 70675715
ĠDet 57510323
ĠsÃ¥ 55967962
Ġ: 55310876
Ġvar 53828919
Ġkan 50820928
Ġvi 46831763
Ġman 44898367
ĠfrÃ¥n 40853576
Ġsig 40829541
Ġ) 38351259
Ġhan 38272698
Ġmen 38062464
Ġdu 34291325
Ġ( 34120739
Ġeller 33428854
Ġ! 31799196
Ġska 29452165
Ġ? 28766428
ĠJag 28727288
ĠI 27543183
ĠÃ¥r 25884989
ĠnÃ¤r 25671882
Ġvara 24466667
Ġkommer 24049082
Ġut 23013292
Ġunder 22845913
ĠMen 22668663
ĠdÃ¤r 22632319
ĠhÃ¤r 22596366
Ġnu 22428854
Ġupp 21909664
s 21791276
Ġin 21611835
ĠocksÃ¥ 21493936
Ġvid 21424498
Ġhade 21123571
Ġfinns 20658290
ĠVi 20633185
ĠÃ¶ver 20338285
Ġ/ 20229702
Ġefter 20031824
Ġmycket 19758483
Ġalla 19756246
ĠsÃ¤ger 19710920
ĠfÃ¥r 19686644
ĠdÃ¥ 19600706
Ġskulle 19367651
Ġha 19244220
Ġ1 18916011
Ġhon 18775495
ĠDen 18731775
Ġsin 18301624
Ġandra 18222540
Ġmot 17646447
ĠfÃ¥ 17313314
Ġbara 17305253
Ġmig 17289596
Ġvill 16925178
ĠÃ¤n 16918456
Ġbra 16681789
Ġblir 16517214
ĠEn 15879024
ĠÃ¤ven 15870851
Ġmer 15805381
Ġhur 14941807
en 14890174
Ġ2 14825532
Ġvad 14675798
ĠDe 14370528
Ġsedan 14210509
ĠtvÃ¥ 13648744
Ġlite 13395966
ens 13271401
ĠnÃ¥got 13135164
ĠmÃ¥nga 13107895
ĠHan 13011201
as 12527502
Ġdetta 12385631
Ġutan 12350525
et 12281634
Ġfick 12245743
Ġta 12116312
ar 12112287
Ġse 12104368
Ġbli 11997723
Ġblev 11985202
ĠgÃ¶ra 11939974
Ġ3 11918756
ĠgÃ¥r 11633553
Ġju 11621266
ĠFÃ¶r 11601360
Ġvarit 11379190
ĠnÃ¥gon 11358513
Ġallt 11323803
ĠmÃ¥ste 11203016
Ġoss 11180437
ĠgÃ¶r 11080427
ĠOch 10993177
ĠfÃ¶rsta 10919250
at 10804735
ade 10583192
Ġgenom 10553536
Ġdem 10472153
Ġfram 10357322
Ġhela 10293862
Ġmin 10175634
Ġdel 10172899
Ġnya 9938370
Ġsina 9768453
ĠSverige 9730202
ĠnÃ¥gra 9668946
Ġ5 9636961
Ġmellan 9627049
Ġolika 9602059
arna 9556757
Ġdag 9503558
Ġdig 9428592
Ġhelt 9371310
Ġinom 9269678
Ġ4 9060496
ande 9060082
Ġs 9059502
erna 9057719
Ġskall 8987437
i 8878390
Ġtid 8860032
ĠNÃ¤r 8765620
Ġdenna 8744223
an 8735962
Ġannat 8704451
ĠâĢĿ 8697282
Ġkom 8498248
Ġsamt 8462069
Ġsitt 8375444
Ġkunna 8341970
Ġstor 8193697
ĠOm 8131484
are 8121051
a 8071257
Ġbarn 8022045
ĠPÃ¥ 7961902
ĠsjÃ¤lv 7943771
Ġstora 7925123
ĠvÃ¤l 7845707
ĠC 7843756
ĠNu 7812309
Ġtre 7722425
ĠgÃ¥ 7601030
Ġser 7517072
ĠDu 7452399
ĠrÃ¤tt 7449565
ad 7384808
ĠsÃ¤tt 7351687
Ġ10 7348191
ning 7339676
ĠS 7318898
Ġsamma 7077110
o 7045096
Ġ6 7039936
ĠbÃ¥de 7007947
ĠvÃ¥r 6958152
Ġdessa 6945532
Ġt 6897942
Ġni 6897393
Ġkanske 6837145
er 6823272
Ġ; 6793738
es 6676776
Ġligger 6675767
Ġflera 6654057
ĠfÃ¥tt 6649663
Ġkunde 6614692
Ġbland 6598679
Ġhem 6591789
Ġhans 6576947
Ġvilket 6560616
in 6548348
Ġm 6539308
e 6537238
ĠAtt 6498566
Ġo 6488298
Ġa 6482258
Ġvet 6471415
Ġhonom 6451270
ĠgÃ¤ller 6445499
Ġdin 6434281
ĠSÃ¥ 6432506
t 6414566
ĠÃ¥t 6398216
Ġgick 6393179
Ġny 6373556
Ġsvenska 6348984
Ġhos 6306673
Ġtidigare 6293787
ĠâĢĵ 6285484
ĠB 6281893
Ġkronor 6238086
Ġ000 6233300
Ġinnan 6198043
Ġingen 6195356
Ġtar 6175842
ĠHon 6150532
ĠA 6132990
ĠT 6114294
Ġredan 6104938
Ġkomma 6068938
Ġdock 6049963
ningen 6014930
ĠgÃ¥ng 6011421
Ġenligt 5980204
Ġ0 5936886
Ġfall 5903729
Ġtror 5896957
Ġ30 5864334
ĠM 5851885
or 5851180
ĠbÃ¤ttre 5845760
ĠbehÃ¶ver 5843403
ĠbÃ¶r 5799557
Ġ7 5794322
Ġigen 5786981
Ġ20 5776268
Ġtycker 5767134
Ġalltid 5767004
ĠStockholm 5758495
Ġrunt 5751171
ĠMan 5693138
Ġprocent 5650633
Ġvarje 5645859
Ġner 5628776
h 5583572
ĠEtt 5545040
ĠL 5528746
Ġ8 5521973
Ġger 5521027
ĠK 5483538
Ġaldrig 5473516
ĠvÃ¥ra 5353617
Ġ15 5351128
Ġjust 5343369
st 5304569
ĠH 5253039
Ġnog 5251096
Ġtiden 5245550
Ġgjorde 5243579
Ġsex 5215235
Ġtog 5166164
ĠvÃ¤ldigt 5153950
Ġkl 5138761
Ġannan 5115522
d 5113064
ĠP 5089654
na 5068002
Ġur 5044531
ĠbÃ¤sta 5040548
Ġmest 5030508
ĠMed 5029781
on 5029508
ĠV 5028271
ĠD 5022669
ĠG 5007298
Ġfolk 4992832
Ġgjort 4987089
Ġkr 4964554
Ġmitt 4931265
Ġplats 4912159
ĠstÃ¶rre 4903495
ig 4884469
Ġtillbaka 4873519
ats 4863692
de 4862929
ing 4854200
ĠmÃ¤nniskor 4849008
Ġge 4798633
Ġ12 4786108
Ġbort 4785755
ĠF 4756076
n 4753101
ĠstÃ¥r 4750739
Ġe 4712568
aren 4698934
Ġ& 4695352
ĠDetta 4679081
Ġriktigt 4667181
Ġmindre 4658671
y 4650203
Ġderas 4648737
ĠDÃ¥ 4640639
ĠEfter 4624427
Ġ9 4610569
f 4601032
ets 4598303
Ġliv 4595796
Ġlika 4532786
ĠE 4516051
ĠmÃ¥l 4500690
Ġblivit 4476843
sk 4476583
is 4457951
ĠVad 4456154
ĠR 4454336
ĠHÃ¤r 4447378
Ġeftersom 4446836
el 4445205
m 4432530
Ġidag 4424595
Ġfler 4381990
Ġtillsammans 4377345
Ġpersoner 4355751
k 4334746
ĠsÃ¤ga 4332462
Ġhand 4329930
Ġ' 4319952
Ġkvar 4308665
Ġper 4305051
ĠUnder 4293983
v 4283916
ĠHar 4275707
ningar 4269383
ĠdÃ¤rfÃ¶r 4263851
berg 4219374
Ġhaft 4214059
it 4198579
Ġ00 4181281
ĠÃ¤ndÃ¥ 4171578
ĠSom 4162340
Ġ% 4152602
Ġfyra 4119022
Ġstort 4110665
iga 4083981
Ġofta 4061662
Ġsenaste 4045529
ĠHur 4042340
ĠÃ¤nnu 4041509
ĠfÃ¶retag 4010800
ades 4003274
ĠÂ» 3991285
Ġ@ 3981335
Ġegen 3957737
Ġ18 3952747
Ġsenare 3940173
Ġhenne 3937472
al 3913318
Ġverkligen 3910321
ĠlÃ¤ngre 3910005
Ġsa 3905399
Ġpar 3900862
Ġgrund 3895384
Ġlag 3888170
Ġsen 3836503
l 3824480
p 3803347
Ġ50 3783979
iska 3768516
ĠlÃ¤nge 3760942
ĠsvÃ¥rt 3755823
ans 3753736
g 3746334
ĠvÃ¤g 3738634
man 3736726
lig 3734200
b 3731878
ĠfÃ¶rst 3712626
Ġlandet 3710992
ĠÃ¥ret 3700184
Ġ16 3695189
ĠN 3695166
Ġicke 3693983
Ġexempel 3676672
Ġslut 3662303
Ġhemma 3637922
Ġganska 3633034
ĠJ 3619950
orna 3613346
Ġsista 3590658
Ġ11 3584384
Ġ14 3578596
ĠlÃ¤tt 3576859
u 3569641
Ġp 3561042
ĠO 3546173
liga 3545706
Ġpengar 3544681
Ġvisar 3537967
Ġbil 3537425
ligt 3532191
Ġvidare 3528277
Ġdom 3519960
ĠhjÃ¤lp 3519174
ĠinfÃ¶r 3518029
ĠalltsÃ¥ 3515753
nings 3512497
Ġdirekt 3505672
Ġ13 3505525
Ġhennes 3495651
Ġfem 3492060
j 3481098
ĠTill 3479692
Ġinget 3469371
ĠkÃ¤nner 3461236
da 3446874
Ġproblem 3430118
Ġkommun 3424060
ĠbÃ¶rjade 3414016
Ġ17 3392289
ĠfÃ¶re 3389171
isk 3381947
Ġer 3381784
Ġmina 3377905
ra 3375428
ed 3363473
ĠnÃ¤stan 3363345
Ġvissa 3350271
Ġdess 3334267
Ġdagar 3330681
r 3328383
Ġgamla 3324783
Ġgratis 3321948
ĠinnebÃ¤r 3310215
os 3308099
Ġan 3294463
us 3281278
ĠlÃ¥ng 3276137
Ġgod 3266074
ĠstÃ¶rsta 3259915
Ġb 3255020
ĠgÃ¤rna 3254699
Ġarbete 3249291
Ġof 3242722
Ġspel 3242423
ĠfrÃ¥ga 3241342
Ġfortfarande 3232664
Ġtalet 3231693
Ġf 3231218
ĠsÃ¥g 3220497
Ġkvinnor 3213475
ĠW 3211543
ĠsmÃ¥ 3211337
sson 3199702
Ġmiljoner 3199333
ĠingÃ¥r 3195652
Ġn 3193119
Ġhandlar 3190520
Ġville 3186619
Ġnytt 3184990
Ġkm 3177148
Ġ25 3174721
ĠhÃ¶g 3170151
igt 3157783
Ġliten 3149329
ĠnÃ¤sta 3130996
ĠlÃ¥ngt 3126875
ĠhÃ¥ller 3124554
Ġform 3123615
Ġned 3121978
ĠgÃ¥tt 3121723
ĠÂ° 3111357
z 3103038
ĠÃĦven 3102189
ĠsjÃ¤lva 3100396
Ġvatten 3098784
Ġklart 3095674
ĠSedan 3087577
Ġmat 3083847
Ġendast 3077611
Ġsett 3062423
ĠVid 3059871
Ġvilka 3054785
Ġminst 3052133
Ġsamtidigt 3049800
Ġmeter 3049419
Ġ| 3041575
ĠkÃ¤nns 3039687
ĠvÃ¥rt 3028187
Ġdagen 3027969
ka 3019524
ĠhÃ¥lla 3011814
Ġborde 3011734
c 3006538
Ġ100 2987845
ĠnÃ¤ra 2986825
Ġute 2974600
Ġ19 2967577
Ġex 2967038
ĠÃĦr 2963789
ĠbÃ¶rjar 2960102
Ġfaktiskt 2956369
Ġkort 2954162
Ġsaker 2953753
Ġinformation 2942214
Ġtrots 2940677
S 2937604
ss 2921892
Ġd 2919942
ĠgÃ¥ngen 2919824
ĠbÃ¶rjan 2917556
Ġh 2916113
Ġsvensk 2908892
Ġfast 2908593
Ġperson 2898511
ĠgÃ¥nger 2883085
ik 2883019
Ġfanns 2880822
Ġfel 2866155
ers 2865877
Ġg 2858721
Ġihop 2857817
Ġenda 2856872
Ġvilken 2850904
Ġextra 2845424
ĠUSA 2832079
Ġall 2827642
Ġk 2817866
Ġhitta 2816641
Ġemot 2811507
Ġr 2808696
Ġegna 2802560
fÃ¶r 2801647
om 2801555
ia 2790908
Ġord 2784466
ĠberÃ¤ttar 2780287
ĠmÃ¶jligt 2769303
ĠAlla 2768527
ĠAv 2765040
la 2764116
ĠfÃ¶rra 2764102
ĠvÃ¤rlden 2757866
Ġbl 2748983
Ġca 2747826
Ġmm 2747373
ĠÃ¥ 2746452
Ġ40 2742498
Ġprecis 2740243
Ġenkelt 2739607
ĠbÃ¥da 2733323
Ġditt 2731206
Ġjobb 2722615
ne 2715507
ĠstÃ¤llet 2707674
era 2707503
ĠlÃ¥g 2698904
Ġ* 2695416
Ġnamn 2691918
Ġgott 2684785
Ġheller 2680512
Ġspela 2676888
Ġflesta 2674423
des 2670511
ĠJa 2667900
Ġfamiljen 2666897
ĠutanfÃ¶r 2665798
Ġkring 2662685
id 2656833
ĠfrÃ¥gor 2652110
Ġfilm 2650735
ĠanvÃ¤nda 2645384
Ġkommit 2637334
Ġland 2633114
Ã©n 2622965
sta 2616986
ĠGÃ¶teborg 2616609
Ġhoppas 2614591
ie 2612981
Ġdessutom 2611316
ĠframfÃ¶r 2603942
Ġval 2597794
Ġhelst 2596043
Ġl 2595755
Ġsenast 2595578
Ġytterligare 2595128
Ġmedan 2592637
ĠSveriges 2592562
2 2590896
Ġv 2584031
Ġhus 2580143
ĠsÃ¤rskilt 2579101
ĠÃ¥rs 2573379
Ġskriver 2569623
ĠfÃ¶rslag 2569136
ĠDÃ¤r 2562950
Ġbeslut 2561275
re 2551869
ĠsÃ¥dan 2550649
ĠEnligt 2546073
Ġtagit 2541896
ĠfrÃ¥gan 2535817
Ġ21 2529527
Ġinga 2527254
Ã¥ 2525065
Ġsidan 2521522
Ġdelen 2520509
ist 2519219
Ġviktigt 2509488
ĠÃ¥ren 2506748
andet 2505962
Ġhel 2503473
Ġej 2497425
Ġvia 2496131
Ġdina 2490554
Ġtal 2478710
ĠInte 2473761
ĠvarfÃ¶r 2473394
Ġveckan 2471429
erade 2470230
ĠstÃ¶d 2464780
Ġrum 2452637
Ġmusik 2443292
Ġsnabbt 2442225
Ġens 2436657
ta 2422101
Ġsnart 2406917
Ġskolan 2403311
Ġdelar 2397174
ĠmÃ¥naden 2395591
ch 2383334
Ġj 2373699
Ġtio 2371914
Ġbakom 2368049
Ġminuter 2362145
il 2361754
ier 2355759
Ġpris 2353678
te 2353673
Ġ22 2352145
ut 2345101
ĠÃ¤ldre 2335600
Ã¶ 2330345
Ġc 2325044
Ġlivet 2317995
ĠRT 2309666
Ġverksamhet 2306479
ningarna 2306060
sen 2300624
ĠmÃ¤n 2296969
Ġbild 2294682
ĠSt 2294212
um 2291443
der 2288924
ts 2284370
Ġvarandra 2274618
Ġsagt 2270814
Ġaf 2268432
Ġ[ 2266618
Ġspelar 2266467
Ġsitter 2264741
ĠkÃ¶pa 2262571
4 2262241
Ġjanuari 2257473
Ġegentligen 2254124
Ġst 2250898
Ġ] 2239372
em 2238048
Ġvecka 2237376
ĠvÃ¤gen 2237092
L 2236239
K 2224131
ot 2213118
ma 2208209
iskt 2196575
den 2195171
ĠsÃ¶ker 2189585
Ġutveckling 2189058
1 2187448
ĠmÃ¶jlighet 2185960
Ġbrukar 2180705
Ġantal 2179134
Ġmenar 2178938
Ġstod 2177942
ĠTV 2165653
Ġstad 2159751
Ġbilder 2156101
Ġ24 2154668
3 2152881
ĠEU 2149869
Ġarbetar 2149021
Ġhuvud 2143994
ste 2142147
Ġtag 2129694
ol 2128059
T 2125006
strÃ¶m 2124278
Ġibland 2122995
Ġfin 2119923
Ġkul 2114669
am 2113703
Ġverkar 2110444
Ġanser 2102220
ĠSvenska 2095580
ĠtÃ¤nker 2092267
Ġ23 2090103
Ġsak 2089752
Ã¤r 2087527
Ġbor 2085569
Ġfor 2085405
ĠtÃ¤nka 2078590
ĠÃ¥ter 2057058
Ġmaj 2055237
Ġbok 2053902
ation 2047119
het 2046182
Ġ60 2045431
Ġtur 2045142
Ġtimmar 2044776
ĠAB 2042797
Ġja 2041183
Ġsatt 2031758
nas 2030646
Ġel 2028972
ĠMalmÃ¶ 2028627
Ġutbildning 2027367
ĠHans 2026693
Ġbehov 2023875
Ã© 2019694
ent 2019068
Ġvisa 2018829
ell 2017718
ĠlÃ¤gga 2016129
Ġomkring 2013427
ur 2006805
Ġregeringen 2006131
ag 2005867
Ġskapa 2001888
Ġunga 2000911
ĠhÃ¶gre 1999172
B 1999042
Ġjuli 1993426
ĠMin 1990610
arnas 1988205
A 1986007
var 1981369
ĠlÃ¤sa 1981093
Ġspelare 1979818
Ġkultur 1978548
ant 1977526
Ġveta 1975307
ĠsÃ¥dana 1969649
ĠkvÃ¤ll 1967132
Ġresultat 1957536
ĠbÃ¶rja 1957317
Ġsida 1955835
Ġmatch 1953364
ĠnÃ¤mligen 1944562
ken 1944140
x 1939791
erat 1939605
ĠhÃ¤nder 1939001
ska 1938968
ĠistÃ¤llet 1936429
ĠbÃ¤st 1936062
Ġsade 1934931
ĠmÃ¥nader 1929897
ĠU 1929628
ic 1928987
ĠDessutom 1926929
Ã¥r 1925484
D 1924028
Ã¤ 1916979
Ġkrav 1916145
Ġskriva 1915895
Ġtyp 1913454
Ġpersonal 1913342
Ġpolisen 1911571
ĠIn 1906398
Ġbarnen 1893582
ĠstÃ¥ 1890608
Ġtredje 1889908
ĠsÃ¤kert 1889819
ir 1889523
le 1888950
Ġliksom 1888487
Ġkommunen 1888094
V 1887080
Ġigenom 1885379
F 1884552
sl 1882728
Ġgav 1882215
ĠVar 1881385
ĠThe 1877431
sb 1875737
Ġskol 1875543
Ġthe 1874941
ĠkÃ¶r 1874855
ering 1871822
ernas 1871781
Ġslutet 1870598
ĠifrÃ¥n 1868070
Ġfull 1868033
Ġcirka 1867845
Ġjuni 1867559
Ġalls 1866887
ĠsÃ¤tta 1862871
ĠÃ¥ka 1861740
ov 1859043
ĠlÃ¤r 1858650
Ã¶r 1856917
ĠkÃ¤nna 1855439
Ġgoda 1849640
Ġsamband 1848260
Ġtro 1847465
ĠlÃ¤nder 1846970
w 1846741
ĠnederbÃ¶rd 1845156
ĠMÃ¥nga 1839680
ĠordfÃ¶rande 1838946
ĠDenna 1836535
sp 1831331
Ġvann 1830649
ter 1829737
Ġveckor 1828251
M 1827336
Ġkvinna 1823131
ĠvÃ¥rd 1822687
Ġtills 1818866
ĠhjÃ¤lpa 1814125
Ġansvar 1810997
ĠomrÃ¥det 1801266
ĠInga 1799433
Ġviss 1799102
I 1796538
Ġtv 1795942
ĠanvÃ¤nder 1794740
Ġmamma 1792470
Ġlilla 1792082
G 1790132
ingen 1789689
sm 1788994
Ġaugusti 1788614
Ġsommar 1788525
ĠFrÃ¥n 1786494
ĠdÃ¶d 1782056
ĠfortsÃ¤tter 1777396
by 1772924
Ġhavet 1768727
Ġfina 1767272
ling 1764925
ĠvÃ¤lja 1763964
ĠSk 1761742
ĠAndersson 1756120
Ġkontakt 1755959
sa 1753644
Ġgrupp 1753116
Ġdit 1750969
ĠvÃ¤nner 1748530
ĠKan 1744386
Ġsteg 1736278
ĠlÃ¤n 1735675
ak 1733252
P 1728319
Ġmars 1725903
ĠfÃ¶rsÃ¶ka 1724112
Ġeget 1723586
ĠErik 1721574
ĠÃ¶vriga 1718921
ĠÂŃ 1717764
5 1715903
EN 1715596
men 1713951
iv 1711233
Ġdags 1708808
6 1703539
ĠIdag 1701088
erad 1701008
kar 1699975
Ġmatchen 1699828
Ġinne 1699462
Ġhittar 1696837
Ġsker 1696594
Ġli 1691585
Ġheter 1689022
ĠPer 1688483
Ġprogram 1687851
att 1686831
Ġvisade 1685396
Ġlaget 1682553
Ġand 1680881
Ġsvar 1679668
Ġroll 1677881
Ġbetala 1676727
ĠSex 1667417
Ġrad 1666853
ĠmÃ¥nad 1666595
Ġuppgifter 1666551
Ġ+ 1665728
ĠdÃ¤rmed 1664819
ĠSen 1662649
Ġvanligt 1659368
ĠhÃ¶r 1659265
Ġseptember 1656776
ĠsÃ¥dant 1654593
ja 1654415
Ġarbeta 1653699
ĠmiljÃ¶ 1651537
ĠAllt 1648159
H 1646940
Ġtrakten 1643692
Ġbygga 1641039
ĠNi 1639819
ĠSe 1639432
lar 1637711
U 1635908
ĠAnders 1635173
sv 1632680
E 1627237
Ġ= 1626715
Ġmera 1625824
Ġarbetet 1625502
ĠhÃ¥ll 1623897
ĠlÃ¤mna 1622554
Ġgillar 1620910
Ġkunnat 1616041
Ġemellertid 1614050
ĠJohansson 1613376
Ġsk 1610311
ĠDÃ¤rfÃ¶r 1608684
erar 1608086
and 1606305
Ġerfarenhet 1606302
rar 1604361
Ġ70 1603850
Ġresa 1603760
Ġbetyder 1603710
ĠfÃ¶rsÃ¶ker 1603427
ill 1601726
ĠÂ· 1601726
Ġsp 1599815
ĠfortsÃ¤tta 1597564
Ġhalv 1596244
sten 1595599
Ġdecember 1593953
Ġintresse 1591898
Ġroligt 1589761
Ġvilja 1586844
im 1582568
ĠhÃ¶gsta 1581070
iet 1579122
Ġklara 1576721
N 1576393
Ġapril 1575535
Ġalldeles 1575293
Ġbe 1575264
Ġsju 1574564
Ġplan 1574487
eg 1572268
ĠlÃ¤ra 1571379
ĠhÃ¶ll 1570090
art 1570003
ĠAl 1565981
Ġspelade 1562384
eras 1561438
Ġ80 1558958
ĠungefÃ¤r 1556383
op 1555220
Ġoktober 1553442
ĠLars 1551663
Ġ26 1546980
ett 1546916
Ġpa 1546720
Ġbrott 1540764
C 1540499
Ġvem 1536644
ĠZ 1535902
Ġnovember 1535846
Ġbostad 1533955
Ġbilen 1531868
Ġfamilj 1528155
ys 1522277
kt 1521429
Ġ2018 1519946
ĠEller 1519104
ĠEuropa 1517142
ĠfrÃ¤mst 1516683
Ġ28 1514597
bo 1513769
8 1511397
Ġjobba 1508845
ĠVM 1505719
Ġstart 1505657
Ġre 1503460
ĠNej 1502024
rade 1500380
Ġjul 1500340
Ġklar 1499595
ven 1498348
Ġanledning 1497260
Ġsocial 1493560
Ġfinnas 1492783
Ġgammal 1492099
Ġlitet 1488127
ĠpoÃ¤ng 1487885
ĠStockholms 1486331
ĠsÃ¤kerhet 1485771
O 1485646
ĠBo 1484010
Ġmorgon 1483600
Ġsamman 1482657
Ġfebruari 1482487
pa 1481287
Ġkonst 1479572
Ġdra 1479375
ĠbestÃ¥r 1479177
Ġekonomiska 1477221
sf 1476038
ĠbehÃ¶vs 1475228
ĠfÃ¶lja 1473652
Ġtopp 1473506
Ġfullt 1472594
mer 1472503
7 1469403
ĠY 1465793
Ġfort 1463696
Ġ500 1463643
av 1462944
ro 1462563
ĠinvÃ¥nare 1460770
Ġfar 1460519
Ġena 1459634
ĠVill 1458170
Ġskola 1458083
Ġjobbet 1457169
ĠAnna 1456740
ĠÃ¥rets 1456627
Ġ27 1456097
Ġantalet 1454821
ek 1454264
ĠrÃ¶r 1450970
Ġjobbar 1450291
ĠJohan 1450133
Ġlever 1447632
ĠkÃ¤nde 1447630
ok 1446608
ion 1446175
ĠVarfÃ¶r 1446031
Ġtyckte 1443526
Ġglad 1441722
Ġslag 1440593
ationen 1439203
ĠlÃ¥ter 1438885
ĠÃħ 1438129
Ġfungerar 1437921
Ġ90 1436737
ĠAn 1435029
est 1433679
Ġporr 1431900
ĠsÃ¤songen 1429431
Ġmannen 1428880
ĠvÃ¤rld 1428276
Ġpolis 1426927
ĠhÃ¥rt 1423259
Ġtjejer 1422984
Ġvinna 1422466
Ġbo 1420425
ĠGenom 1418276
va 1416813
ER 1416446
ĠlÃ¥ta 1415727
Ġpolitiska 1414054
ul 1412255
ĠKanske 1411485
Ġexempelvis 1411089
ĠsÃ¥vÃ¤l 1410349
ĠrÃ¥d 1405811
ĠSamtidigt 1405513
Ġdejting 1404483
Ġ# 1403605
Ġprojekt 1402903
och 1402869
ri 1402206
Ġdjur 1398047
Ġ2017 1395869
hus 1394414
Ġfotboll 1392389
its 1389874
Ġtack 1389755
Ġ_ 1388364
sfÃ¶r 1387930
Ġskrev 1386492
ĠspÃ¤nnande 1385273
ĠPeter 1384676
ĠbesÃ¶k 1383262
ĠlÃ¥nga 1382669
Ġ45 1382330
Ġ08 1379650
ĠfÃ¶ljande 1378624
ĠÃĸ 1374713
Ġerbjuder 1374436
ĠSka 1374155
ĠDessa 1373116
ĠvÃ¤rldens 1372429
Ġprodukter 1370807
ĠÃ¤ta 1367798
Ġliknande 1367411
Ġtelefon 1367080
Ġ31 1366072
ĠfÃ¤rg 1363310
ĠkrÃ¤vs 1363064
ister 1362582
Ġpassar 1362558
ĠBr 1362002
R 1359702
Ġdrygt 1359124
un 1358657
ĠmÃ¶jligheter 1355886
Ġflyg 1355694
ĠIngen 1354424
Ġviktig 1353339
Ġ2015 1348855
Ġske 1348301
Ġfr 1346653
ĠÃ¥lder 1345930
Ġ200 1343877
ĠsÃ¥som 1343772
Ġhistoria 1343536
Ġvore 1343444
Ġstaden 1342098
ina 1341577
ĠvÃ¤ljer 1341309
Ġguld 1340931
else 1340625
ĠtÃ¤nkte 1339396
Ġva 1337781
Ġdels 1336585
ĠsamhÃ¤llet 1334060
nade 1333531
ĠigÃ¥ng 1332363
Ġuppdrag 1331480
Ġmassa 1330232
Ġbilden 1328934
Ġfint 1328744
lag 1328223
Ġmedel 1327699
Ġplatser 1326253
Ġdagens 1325336
Ġsystem 1324702
ien 1322861
ĠnÃ¤rmare 1322780
od 1322210
Ġtidigt 1321432
Ġ2016 1320546
ĠÃ¥tta 1320429
Ġarbet 1319934
ĠanstÃ¤llda 1319584
Ġ35 1319104
ĠfÃ¶rÃ¤ldrar 1319031
Ġsommaren 1317850
ĠÃ¶vrigt 1317800
ĠskÃ¤l 1316495
und 1312550
Ġelever 1311365
Ġ2014 1309910
Ġframtiden 1309034
ĠfÃ¶rstÃ¥r 1309011
els 1308792
Ġuppgift 1307705
ĠstÃ¤lla 1307506
ĠsÃ¶ndag 1306691
gren 1303525
Ġkrig 1302986
Ġmedlemmar 1302150
ĠÃ¥kte 1302071
Ġpost 1301298
ĠÃ¤lskar 1301274
Ġljus 1300929
ĠmÃ¥n 1299229
gen 1298983
Ġhit 1298359
Ġtrafik 1297769
Ġto 1296164
ster 1295057
ĠfÃ¶rstÃ¥s 1293853
ĠLife 1293675
ĠÃ¶ka 1293616
Ġtalar 1293506
Ġonline 1292605
ĠhÃ¶ra 1292453
ĠTvÃ¥ 1287515
ĠNilsson 1287018
Ġ29 1285334
Ġhuset 1281500
Ġstund 1280682
Ġstark 1279947
ĠÃ¥tgÃ¤rder 1278050
ĠTa 1276951
og 1275536
Ġamerikanska 1275387
ĠanvÃ¤nds 1274587
Ġlan 1274498
Ġavtal 1274210
9 1273935
ĠLe 1273753
ins 1272911
ĠJan 1271907
Ġannars 1270031
Ġleva 1268088
ĠÃ¶ppna 1267755
ĠkrÃ¤ver 1267539
ĠfÃ¶rstÃ¥ 1267233
Ġnatur 1266927
ĠhÃ¶gt 1266485
Ġsamarbete 1265646
Ġmatcher 1264321
ĠtrÃ¤ning 1263489
ger 1261544
Ġenergi 1261036
ha 1260612
Ġbeskrevs 1260261
Ġkunskap 1257835
ĠvÃ¤ntar 1256144
ĠkvÃ¤llen 1255157
sh 1254758
se 1254469
Ġlagen 1254334
rÃ¤tt 1253905
ĠslÃ¤ktet 1253389
yn 1252324
ĠhÃ¶ga 1251146
ala 1250443
Ġklockan 1249082
rat 1246571
Ġpappa 1245994
ĠkÃ¶ra 1245099
Ġrisk 1244404
ring 1243124
Ġkraft 1242387
ĠinnehÃ¥ller 1240376
ver 1238463
ĠUt 1237922
Ġmiljarder 1237691
ĠnÃ¤tet 1237332
ĠnÃ¤rheten 1234003
Ġmaterial 1233032
ĠTrots 1230962
Ġtel 1229698
del 1229512
Ġvanliga 1229158
Ġsociala 1228664
ĠlÃ¤rare 1227427
Ġprata 1227284
Ġtanke 1224642
land 1224434
Ġnuvarande 1224269
Ġnatt 1223698
Ġtips 1223302
Ġborta 1221699
ord 1221373
bar 1220313
Ġstats 1218422
Ġboken 1218215
Ġchans 1216580
ĠomrÃ¥de 1216471
Ġsol 1215196
ighet 1215061
Ġberor 1214774
if 1213762
Ġsam 1213643
Ġnej 1213323
Ġunderarter 1210457
Ġlistade 1209964
ĠdÃ¤remot 1207855
Ġkallas 1206875
ĠNew 1206825
Ġgenomsnitt 1206810
ĠfÃ¶ljer 1204191
alt 1204044
Ġengelska 1203502
lade 1202902
ingar 1201282
Ġviktiga 1200640
Ġspeciellt 1200588
Ġsamtliga 1199897
ĠbehÃ¶va 1199042
Ġfl 1198649
ĠAr 1198232
Ġkvalitet 1197965
Ġtitta 1197840
Ġmassage 1197592
ons 1197520
ĠVÃ¥r 1197384
ĠlÃ¤gger 1196866
Ġnaturligtvis 1196709
ff 1196302
Ġtas 1195862
Ġbudget 1194915
Ġseger 1194908
ĠCatalogue 1193624
Ġtrodde 1193564
Ġleder 1193056
ras 1192644
Ġhuvudstaden 1192198
Ġservice 1191368
ĠCarl 1191137
stad 1189044
Ġmark 1186979
Ġberoende 1186965
ĠMer 1186695
Ġpass 1185733
rad 1185708
Ġskog 1182222
Ġtotalt 1181170
ĠfÃ¶dd 1180952
Ġingenting 1180486
Ġklass 1180258
ĠSp 1179123
Ġbetydelse 1178525
Ġkunder 1178524
Ġvisst 1175175
Ġkroppen 1172701
ĠSD 1172527
Ġstarkt 1172422
ĠanvÃ¤ndas 1172386
Ġslog 1172111
Ġchef 1171270
upp 1171235
Ġalternativ 1171167
ĠÃ¥ker 1170327
Ġfri 1169465
Ġhelgen 1168558
Ġsitta 1167985
ĠbÃ¶rjat 1167006
nar 1166734
ĠnÃ¥ 1166140
ĠstÃ¤ller 1166046
ĠfÃ¶retaget 1165768
ga 1165568
ĠomrÃ¥den 1162621
Ġungdom 1161657
Ã¤n 1160443
ĠvÃ¤n 1159663
Ġallra 1158418
75 1158409
ĠfÃ¶rsÃ¶k 1158255
Ġintressant 1158070
ĠhjÃ¤lper 1155902
ner 1155748
Ġverksamheten 1155115
ĠLÃ¤s 1153270
ĠlÃ¶rdag 1153006
ĠÃ¶kar 1151851
io 1150792
ĠkÃ¤rlek 1150606
Ġbetydligt 1149076
ns 1149018
ĠvÃ¤rde 1147561
ings 1146133
nad 1146042
ars 1143098
Ġmil 1142213
Ġvin 1141358
ĠhÃ¤nsyn 1139729
ĠBland 1138757
ĠsprÃ¥k 1138595
ĠvÃ¤nster 1138513
anden 1137604
Ġsvart 1137313
Ġvare 1137177
alen 1136619
Ġabsolut 1136206
ĠEl 1136132
Ġsnabb 1134508
ĠJust 1134302
ĠlÃ¤ge 1133668
AN 1133603
lighet 1133337
ĠtÃ¤nkt 1131989
AR 1128924
Ġpension 1128282
mar 1126018
ĠdÃ¥ligt 1123503
ĠBerg 1121508
ud 1120597
Ġbehandling 1120277
min 1119910
J 1119053
ĠfÃ¶rsvar 1118077
Ġnorr 1116956
ĠRe 1116555
ĠUppsala 1115732
Ġbilar 1114877
ĠdÃ¤refter 1111897
ck 1111482
ors 1110874
Ġsv 1109498
ĠskÃ¶nt 1109430
Ġsjuk 1107357
ĠkÃ¶p 1106183
heten 1105732
ĠsÃ¶ka 1104431
ine 1103664
Ġtala 1103012
ser 1102138
ĠtrÃ¤ffa 1101403
je 1099761
ĠbÃ¶cker 1098558
Ġlokal 1096837
ĠhÃ¶ger 1096654
ĠbÃ¤r 1094396
Ã¶ren 1094348
Ġlokala 1092713
ke 1092683
ĠklÃ¤der 1091563
ĠhÃ¶st 1091309
elsen 1090937
Ġfilmen 1088274
eb 1087608
ĠSven 1087458
Ġpolitik 1086531
ef 1086309
ena 1086085
Ġdrog 1085532
Ġhotell 1081749
ĠGratis 1080942
kade 1080512
of 1078187
ĠberÃ¤tta 1078039
Ġrik 1078037
Ġherr 1074753
Ġhittills 1074134
Ġson 1072586
ĠrÃ¥der 1072398
Ġstan 1071662
ĠframÃ¥t 1071310
ĠEftersom 1070524
Ġenbart 1070271
Ġbad 1069249
Ġton 1068382
Ġperfekt 1068189
Ġlyckades 1067984
eringen 1067709
ĠCh 1064026
Ġvis 1062001
ĠtillrÃ¤ckligt 1061896
Ã¥s 1061265
Ġung 1060866
ĠnivÃ¥ 1060594
ĠJo 1056525
ĠigÃ¥r 1056017
ĠlÃ¤gre 1055686
Ġsyn 1054606
ĠsÃ¤tter 1054463
Ġungdomar 1052844
ism 1052626
Ã¶n 1051474
Ġpolitiker 1049335
ĠslÃ¥ 1049069
Ġkilometer 1048310
Ġkostar 1048039
ĠÃ¶kat 1048030
chef 1047996
Ġstraff 1047856
Ġvisste 1047747
ĠlÃ¥t 1047524
holm 1047196
Ġskatt 1046927
Ġnumera 1046887
Ġnatten 1045653
ĠÃ¶ppet 1044033
Ġensam 1042971
ob 1042716
Ġundan 1041922
ĠSvensk 1039225
ĠsamhÃ¤lle 1038495
ĠsvÃ¥r 1038206
ĠhÃ¶sten 1037423
Ġskillnad 1036540
Ġkontroll 1036184
Ġskrivit 1035647
Ġregering 1034577
ĠtjÃ¤nster 1034074
Ġsatte 1033408
ĠnÃ¶jd 1032994
ĠvÃ¥ld 1031227
ĠFÃ¶rst 1030849
Ġmedlem 1030316
li 1029952
tt 1029687
Ġanses 1029493
Ġotroligt 1028590
Ġcentrala 1028239
Ġfru 1028226
son 1026780
Ġvisat 1026551
Ġdrar 1026541
Ġ55 1025889
ĠgÃ¤llande 1025293
Ġleda 1025232
Ġoftast 1024811
ĠlÃ¶ne 1023976
Ġvackra 1021629
ĠKarl 1020712
ĠFinland 1020500
ĠLund 1019983
Ġar 1019652
Ġvart 1018489
eln 1018326
Ġtorde 1017711
ĠStefan 1016904
ber 1016618
Ġcom 1016105
rum 1014998
ĠTyskland 1014584
Ġ2013 1014504
Ġmakt 1014433
ĠmÃ¥ 1014168
Y 1014069
ian 1013351
ost 1011852
iken 1011430
ort 1011345
ĠlÃ¥n 1011230
ĠnÃ¥gonsin 1010626
vis 1010475
Ġrespektive 1010020
ĠNy 1007644
ĠaffÃ¤r 1006107
Ġfredag 1006083
sam 1005468
ĠHa 1005397
Ġsport 1004567
Ġstockholm 1003906
Ġsamtal 1002461
ĠtÃ¤vling 1002268
ĠfÃ¶rut 1002045
ĠsÃ¤ker 1001655
Ġbygger 999886
Ġfokus 998623
ĠMaria 998612
ĠNord 998518
Ġbidrag 995699
ĠvÃ¤xer 995642
ll 994564
Ġuppe 993768
ĠsÃ¤song 993572
ĠTack 992526
ĠnÃ¥gonting 992108
ĠplÃ¶tsligt 990639
Ġvalet 989565
ĠTh 989342
Ġhund 988704
Ġutveckla 986376
gatan 986365
Ġligga 986026
ĠLa 986022
Ġon 985685
ĠÃ¶nskar 985669
Ġvars 985065
Ġtjej 984518
ĠinlÃ¤gg 982884
Ġbit 982295
Ġkommande 981948
Ġboende 981749
Ġrent 981507
ĠMar 981460
Ġlopp 980984
Ġsjukhus 980036
Ġlyckas 979665
Ġ300 979387
ĠÃ¥tminstone 979174
elser 978885
verk 978094
ĠrÃ¶st 977859
ĠrÃ¤cker 977847
Ġkommuner 977576
Ġviktigaste 976979
ĠallmÃ¤nna 976872
ĠtjÃ¤nst 976742
ĠBra 976094
ĠNÃ¥gra 975934
ĠGud 975224
ationer 974471
Ã¥n 974238
ĠvÃ¤nta 972787
sst 972495
Ġverk 971885
Ġren 971597
ren 971568
Ġvarmaste 970701
ĠÃ¶gon 970699
ĠspÃ¥r 969838
ĠhÃ¶gst 969040
vÃ¥rd 968531
ĠivÃ¤g 967231
ark 967203
ĠTre 967099
ĠlÃ¤ttare 967078
ĠSch 965785
Ġmening 964716
Ġ75 964511
Ġfallet 964215
Ġfa 963668
Ġminska 963034
Ġhandel 962908
Ġmillimeter 962898
Ġis 961538
ĠNorge 961299
Ġforskning 960818
Ġhot 960811
Ġsaknar 960331
Ġutvecklingen 960072
par 959948
slag 959842
huset 959701
ara 958774
ĠLind 956606
ĠutifrÃ¥n 955889
Ġinternationella 955684
ĠBara 955336
ĠlÃ¶n 955273
ĠBjÃ¶rn 955037
ĠSM 955021
ĠÃĸver 954999
ĠhÃ¤st 954881
ĠVarje 954405
Ġvinter 953522
Ġkropp 952705
Ġluft 952080
ĠmÃ¥ndag 950517
age 950459
Ġoavsett 950159
ĠgÃ¶ras 949974
Ġvinst 949580
Ġvuxna 948900
ĠansÃ¶kan 948496
Ġal 948229
ĠÃ¶ 947878
Ġwww 947791
Ġkallaste 946825
Ġidrott 946759
Ġtydligt 946537
ĠEr 946363
Ġreda 946015
Ġ^ 945796
Ġbar 945754
Ġordning 944813
ĠmÃ¥let 944589
Ġregler 944413
Ġfilmer 944379
ott 944205
Ġjord 943806
Ġskapar 943172
Ġhuvudet 942777
Ġknappt 941987
Ġmedeltemperaturen 941895
ĠÃ¶kade 941499
ĠÃ¶ppen 940590
ĠberÃ¤ttade 939283
ĠKarlsson 936666
ĠtillgÃ¥ng 935235
qvist 934752
Ġflytta 934673
Ġstaten 934164
vÃ¤gen 933664
ĠÃħrsmedeltemperaturen 932296
kl 932094
ang 931795
ĠÃ¶rn 931532
mark 931294
ĠLarsson 931252
hem 929985
Ġproduktion 929419
int 929279
yr 928919
ce 928731
ĠkÃ¤nsla 928194
orn 927771
Ġfavorit 927679
Ġkvadratkilometer 927650
ĠBe 926781
Ġprincip 926621
ĠtillstÃ¥nd 926099
Ġla 925680
Ġbak 925440
Ã¤ng 924888
ĠÃ¤ger 924614
ĠFredrik 922843
ge 921311
val 921240
Ġtyska 919003
ander 917552
Ġuniversitet 917187
ĠjÃ¤mfÃ¶rt 917082
br 917057
Ġvillkor 916021
det 915310
Ã¥ng 914986
Ġriksdagen 914777
all 914159
Ġmarknaden 911783
ĠUpp 911530
Ġcm 910519
ker 910303
ĠhÃ¤nt 909009
Ġvideo 908833
dag 908584
Ġben 907445
Ġmesta 907175
pl 906850
ip 906628
Ã¥g 905412
Ġ2012 905313
Ġvit 903527
Ġserien 902449
ller 902154
ĠtyvÃ¤rr 901965
Ġdagarna 901138
ĠKom 898788
Ġkallade 898727
Ġfisk 898678
Ġteknik 897171
Ġblogg 897166
ĠGenomsnittlig 897014
Ġfjol 896530
ĠOS 896205
Ġmitten 895823
ĠLÃ¥t 895553
Ġcentrum 895219
Ġor 894773
ĠX 893638
Ġpersonliga 893480
Ġfred 893235
Ġtorraste 893069
Ġbr 892195
Ġsluta 891846
ionen 891619
Ġparti 891563
ĠmÃ¶te 891246
Ġnyligen 890440
Ġklubb 890238
Ġregnigaste 890038
Ġslutade 889563
Ġframtid 889551
ym 889085
Ġsituation 888993
Ġekonomi 888824
ĠÃ¥rsnederbÃ¶rd 888392
ĠPersson 887705
ĠKl 885552
Ġskydd 885546
Ġvattnet 885118
ĠlÃ¤ser 884947
lund 884727
ĠJohn 884088
ĠutgÃ¶r 883804
spel 883583
ĠlÃ¤mnar 883446
pp 883398
ĠfÃ¶rbi 882998
ĠfÃ¶ljd 882932
form 882398
Ġber 881435
OR 880893
Ġyngre 880834
Ġledare 880380
bergs 880221
Ġnamnet 879865
Ġx 879649
Ġsist 879561
be 879289
ST 878707
Ġledningen 878371
ĠnÃ¤rvarande 877187
ĠlÃ¤kare 877106
Ġdating 877028
Ġsemester 876755
Ġplatsen 876525
Ġtycks 876363
kas 875673
Ġmotsvarande 875555
ĠnÃ¤tdejting 875318
Ġledning 875219
me 874991
ram 873172
Ġbrand 873085
ten 872867
ĠÃĸrebro 871936
Ġtext 870336
ĠfÃ¶rsÃ¶kte 870299
Ġstrax 870134
Ġdejta 869602
Ġpress 869392
ĠMitt 867908
Ġses 867601
Ġtidningen 867577
Ġbolag 867511
ĠsÃ¤lja 867030
Ġfortsatt 866868
Ġgett 866478
ĠrÃ¤dd 866305
ĠkÃ¶k 865759
ĠFrankrike 865018
ĠMartin 864237
Ġpro 864090
ium 864010
Ġnio 863694
pen 863477
W 863433
Ġkund 863396
slagen 863165
ps 862024
Ġkaffe 861564
Ġkolla 860961
Ġlandets 860576
ĠvÃ¥ren 858493
ĠsÃ¶der 857878
ika 857266
ib 857171
Ġprogrammet 856482
Ġsuper 855991
Ġkyrkan 855547
Ġgruppen 855495
ĠEriksson 855173
Ġilla 855058
ĠSam 854926
Ġresten 854792
ĠnÃ¤rmaste 854737
ĠfÃ¶rutsÃ¤ttningar 854346
bil 853839
Ġglas 852808
van 852662
ĠkÃ¶rde 852645
skolan 851785
ug 850959
gar 850745
Ġstarka 850253
borg 850211
ierna 849678
ĠMycket 849164
ĠlÃ¤mnade 849041
ĠSh 848302
Ġw 847993
Ġprivat 847809
Ã¤tt 847347
Ġvanlig 846367
ĠlÃ¶sa 846228
Ġlagt 845707
Ġtr 845199
plan 844227
Ġ2010 843897
ĠkÃ¤ndes 843453
ĠmÃ¤nniska 843222
Ġbrev 842293
Ġkyrka 841978
Ġknappast 841787
Ġbygg 841028
ET 840759
ĠkÃ¶pte 840460
Ġsent 840388
ĠfÃ¶rslaget 840191
Ġnr 839729
Ġby 839445
ĠStor 839315
Ġomfattande 839090
Ġges 838324
ĠfÃ¶rmÃ¥ga 838231
Ġont 838057
Ġsn 837935
ung 837646
Ġdotter 837530
Ġslags 837455
ĠTÃ¤nk 837063
Ġeleverna 836822
ĠÃ¥ringen 836245
Ġorganisation 835520
ĠAll 835440
Ġstat 835357
derna 834616
ĠEd 834572
ies 834447
Ġvikt 833965
Ġkostnader 833684
Ġ36 833472
Ġtaget 833361
ĠDanmark 832473
vik 832214
kr 832033
Ġsaken 831865
ex 831746
Ġ$ 831712
Ġindustri 831560
Ġgrader 830966
ĠfÃ¶rsÃ¤ljning 830509
ĠÃ¶kad 830497
ĠpÃ¥gÃ¥r 830351
per 830200
Ġsl 830070
ĠLondon 830058
ĠtrÃ¶tt 829715
Ġstanna 829601
Ġpratar 829374
Ġled 828645
med 828357
Ġdans 828186
ĠsÃ¤llan 828008
Ġvalt 827949
IK 827806
Ġlyckats 827008
ĠDÃ¤remot 826965
Ġprov 826784
lla 825631
ĠfÃ¶rhÃ¥llande 825476
Ġpriset 825295
Ġsvarar 825031
Ġpengarna 824870
Ġannorlunda 823751
Ġescort 823620
ĠsÃ¶dra 823397
Ġstil 822442
ran 822286
Ġmedarbetare 822090
Ġhittade 821668
Ġ32 821018
Ġlunch 820938
ĠBarn 820876
ĠFolk 820479
Ġvalde 819807
ĠStora 819208
ĠHerr 819179
nat 818145
Ġchansen 818126
ĠHem 818078
Ġu 817220
ĠsjÃ¤lvklart 816927
Ġallvar 816713
ĠSten 816528
ĠhÃ¥r 816512
ĠSa 816159
Ġtankar 816093
ON 815927
ĠslÃ¥r 815676
ĠtillfÃ¤lle 815003
Ġutredning 813990
Ġljud 813806
ĠUmeÃ¥ 813755
Ġpriser 813671
Ġgivetvis 813616
ana 813510
ĠhÃ¤lsa 813290
mat 812839
arbete 812746
Ġovan 812654
Ġserie 811197
Ġy 809847
Ġfan 809733
dr 809537
ater 809057
Ġdela 808667
ĠNÃ¥gon 808026
Ġerbjuda 806637
Ġsvara 804771
ĠÃ¤nda 803757
ĠFast 803523
Ġbank 803218
ĠalltfÃ¶r 803069
ĠPorr 802906
ĠhÃ¶rt 802732
ĠnÃ¤rmast 802510
Ġnummer 801121
ĠlÃ¤genhet 801023
ĠlÃ¤get 800529
Ġfart 800060
ĠmÃ¶ter 799596
Ġra 799373
ĠIbland 798744
ĠTT 798601
ĠOlsson 798148
Ġenskilda 798099
ĠDin 797451
Ġband 797038
Ġplus 796403
Ġ2011 796052
up 795755
Ġhemsida 795465
itt 794727
sn 794639
Ġsammanhang 794098
Ġkredit 793714
ĠfÃ¶rs 793403
ĠsÃ¤mre 792794
ĠbestÃ¤mt 791738
ĠSvensson 791301
itet 791252
Ġberg 790750
Ġhandla 790671
ĠavgÃ¶rande 790556
ong 790163
Ġresultatet 790022
Ġgrad 789953
Ġfyller 789838
Ġspelet 789353
lat 789224
Ġmassor 788964
ĠDN 787624
Ġtimme 786891
ĠlÃ¶sning 786642
Ġklarar 786501
ĠkÃ¤nd 786461
Ã¶v 786123
Ġminns 785443
Ġhundra 785128
verket 785109
ĠfÃ¶rr 784386
ĠRedan 784133
ske 782582
ĠAndra 782484
iss 782232
Ġklimat 781838
ler 781581
ama 781277
Ġbas 780700
X 780058
Ġvan 779872
Ġ65 779609
vet 779532
Ġspelat 779477
Ġ33 778750
ĠfÃ¶rutom 776762
00 776192
bl 775260
Ġvapen 774833
Ġinternet 774521
ast 774103
Ġvita 773811
Ġhuvudsak 773568
ĠhÃ¤lften 773001
ĠFN 772772
Ġbyta 772731
ĠdÃ¥lig 772436
Ġalkohol 772304
Ġskicka 772165
ĠÃħr 771648
Ġklubben 770777
ĠstÃ¤llning 770487
Ġfastighet 770176
ĠgÃ¶rs 770146
ssk 769867
ĠsnÃ¶ 769788
ĠDagens 769683
Ġkontor 769518
Ġsidor 769269
iva 769239
Ġperioden 768765
ret 768626
Ġsituationen 768266
ĠlÃ¤mnas 767841
ĠtrÃ¤na 767530
Ġhopp 766078
Ġtorsdag 766075
Ġ400 765830
Ġbolaget 765436
Ġresurser 764853
ĠGÃ¶ran 764188
Ġ01 764156
ĠÃ¤ntligen 763938
ĠYork 763878
Ġsjukdom 763154
Ġlyssna 763074
Ġringa 762976
ĠSVT 762906
ĠGunnar 762812
yl 762541
Ġexakt 761631
Ġgrupper 761229
ab 761222
Ġbyggnad 760543
ĠkÃ¶n 760283
Ġmarknad 760257
Ġfantastiskt 760248
he 760171
ĠSjÃ¤lv 759689
ĠvÃ¤der 759169
Ġpresident 759082
ĠglÃ¤dje 758725
ard 758636
ĠThomas 758546
Ġkalla 757763
ĠtillhÃ¶r 756873
AL 755677
Ġmiddag 755458
isten 754614
ĠTr 754349
ĠpÃ¥verka 754150
Ġnorra 754128
istiska 754099
Ġperiod 753843
Ã¶ver 753584
ĠFl 753284
ida 753212
ĠNya 752793
ĠfjÃ¤rde 752651
ĠtrÃ¤nare 752627
iker 752491
ĠrÃ¤kna 752304
ĠmÃ¤ngd 752227
ĠDaniel 751939
ĠParis 751915
ĠDavid 751222
lin 751149
ĠsÃ¤rskild 751072
ĠMats 750913
Ġsten 750396
Ġro 749927
ĠDel 749852
Ġtisdag 749407
Ġrelativt 749378
ĠsamhÃ¤ll 749144
ĠersÃ¤ttning 748329
Ġkapital 748191
ĠmÃ¶ta 747951
ĠMa 747924
Ã¶s 747793
Ġtryck 747784
ĠExpressen 747752
ĠfÃ¶rklarar 747568
ĠDom 746559
ĠMaj 746499
ĠrÃ¤tta 745812
Ġenkel 745807
ba 745649
Ã¶k 745449
ĠMagnus 745280
ĠEngland 745041
ius 744749
Ġte 744207
ĠsÃ¤ttet 744190
Ġfest 742598
arens 742581
ingarna 742581
gÃ¥ng 742517
Ġblod 741967
ĠfÃ¶rrÃ¤n 741246
Ġtittar 740660
mans 740563
Ġsvarade 740183
ĠstÃ¤ndigt 739890
Ġspecial 739549
yt 739119
Ġuttryck 739119
ĠKalmar 738576
Ġfot 738245
Ġkvinnan 738237
ĠNÃ¥got 737401
ĠBengt 737063
Ġmodern 736607
Ġintresserad 736559
ow 736457
sin 736266
skap 735808
yd 735077
Ġbutik 734832
Ġdam 734163
Ã¤l 733512
Ã¥t 733168
ĠVem 732820
fl 732135
ĠallmÃ¤n 731014
ĠrÃ¤knar 730716
ĠkÃ¤nda 730691
gÃ¥rden 730546
Ġstudie 730167
Ġriktig 730081
ĠlÃ¤st 729851
hl 729727
ĠvÃ¤rd 729589
Ġinkomst 729204
plats 728391
Ġonsdag 728263
iden 728125
ĠÃ¤ter 727991
ĠhÃ¥rd 727979
bb 727231
str 725902
ĠMarie 725765
Ġlager 725475
ou 725274
Ġutvecklas 724957
ĠSÃ¶der 724845
Ġstartade 723560
ĠihÃ¥g 723127
ĠEM 723110
ĠsÃ¥ng 722941
Ġeffekt 722513
pt 721868
Ġpunkten 721554
ĠJonas 721536
ĠFr 721424
Ġundrar 721263
ĠtÃ¥g 721249
Ġprodukt 720957
ator 720922
Ġvarken 720192
Ġkon 719867
Ġch 719164
Ġstorlek 719065
Ġfortsatte 719056
ĠUn 718765
Ġkritik 718232
ft 718218
ĠidÃ© 717211
gr 717101
las 717030
Ġdelta 717026
Ġcykel 716907
Ġstudier 715625
bara 715581
ĠVisst 715547
ĠAm 715444
ĠlÃ¤ngs 715099
ĠTor 714842
Ġsyfte 714362
ĠBil 714292
Ġpunkt 714257
Ġmor 714253
ĠMot 714175
ĠHade 714122
Ġsnarare 713939
Ġdebatt 713044
ĠGr 713030
ĠÃ¤ro 712847
tal 712307
sg 712032
Ġoro 712012
Ġpartiet 711415
ĠrÃ¶d 710777
inge 710763
ju 710637
isterna 710381
ĠSkÃ¥ne 710224
ĠkÃ¶per 710200
iner 710113
ĠVÃ¤st 709906
Ã¶rer 709525
gÃ¥rd 709388
Ġkn 709353
kom 709289
ĠfrÃ¥gade 708701
Ġvarav 708663
Ġutom 708571
Ġvarmt 708364
ema 707955
ĠsÃ¤rskilda 707455
agen 707118
ĠRunt 706461
Ġbet 705941
ligen 705873
ĠHej 705456
rik 705285
Ġbakgrund 705138
ĠrÃ¤dda 704938
pÃ¥ 704899
Ġfree 704730
ĠSK 704361
Ġkap 704354
Ġlugn 703503
ĠutmÃ¤rkt 703331
ĠtrÃ¤ 702998
als 702587
Ġnormalt 701979
Ġrestaurang 701259
ĠmÃ¶jligheten 701140
ĠFÃ¶rutom 701131
Ġtrevlig 700558
Ġfinner 700534
Ġinsatser 700360
ide 700268
Ġstyr 700018
Ġjorden 699800
Ġ34 699706
ĠBar 699634
Ġvisas 699428
skydd 698704
ĠhÃ¤nde 698661
ĠFlera 698361
Ġgr 698190
Ġteater 698146
ĠsvÃ¥ra 698121
ĠkÃ¤nt 697658
nen 697142
Ġtekniska 696419
Ġ2000 696076
Ġaktuella 695760
ĠFÃ¶rsta 695746
Ġfranska 695585
Ġpart 695309
ĠRyssland 694918
ĠÃ¥rig 694414
rÃ¥det 694207
ĠGÃ¶r 693966
Ġmilj 693910
ĠâĢľ 693383
Ġkille 692758
Ġ> 692458
ĠOlof 690673
Ġbeslutet 690668
Ġsova 690574
ĠHela 689928
Ġbefinner 689047
Ġsm 689002
Ġhamnar 688732
ata 687181
ssons 686972
Ġ09 686803
ĠhÃ¤nda 686659
Ġtak 686639
ĠKina 686601
Ġtolv 686535
Ġaktiviteter 686528
Ġlokaler 685843
Ġtider 685761
ĠbÃ¥t 685741
Ġskador 685372
till 685338
Ġstyrelsen 685250
bart 684532
Ġvitt 684056
ĠUlf 683609
Ġbarnet 682586
Ġskull 682132
ĠpÃ¥verkar 682011
Ã¶d 681727
Ġfunnits 681578
ations 681494
vin 680358
Ġskogen 680167
Ġsikt 679983
som 679429
enten 679016
Ġkallar 678384
Ġbjuder 677974
Ġ150 677367
Ġbuss 677263
ĠÃ¶verens 676990
Ġring 676931
Ġkoll 676361
Ġtydligen 676004
Ġtyper 675826
ĠPro 675453
Ġbotten 675399
ĠSkulle 675324
ern 675151
Ã¥ret 674845
fr 674740
Ġryska 674718
Ġprivata 674314
Ġpositivt 674039
ĠkÃ¶tt 674007
Ġbetyg 673698
Ġskolor 673539
ĠbehÃ¶vde 673211
Ġfolket 672793
fors 672687
ĠundersÃ¶kning 672664
AD 672482
Ġkommunens 672482
Ġartikel 671716
sd 671637
ĠÃ¤gg 671461
Ġdvs 670947
ĠfÃ¶rdel 670255
Ã¤nd 670023
ru 669939
ĠoerhÃ¶rt 669859
Ã¥l 669808
ĠdrÃ¶m 669479
oc 669014
ĠEva 668571
ĠIFK 668491
ĠlÃ¤mnat 668439
ĠVidare 668186
Ġprojektet 667822
Ġundantag 667729
Ġflyttade 667405
Ġkunskaper 666858
Ġbetalar 666679
Ġvacker 665208
jer 665040
ĠlÃ¤t 664323
Ġder 664298
Ġmotion 664295
ĠvÃ¤rme 664158
Ġfantastisk 664157
Ġsystemet 664141
Ġantingen 663978
Ġutredningen 663756
Ġhelg 663739
ĠfÃ¶nster 663367
Ġmedier 663327
Ġkostnad 663033
fÃ¶rbundet 663017
Ġcentral 662263
Ġregel 661927
Ġuppfattning 661149
Ġmobil 661092
ĠBl 660961
Ġkraftigt 660732
ĠkÃ¤nslor 660585
Ġproblemet 660468
ĠHÃ¶g 660452
ĠEk 660393
blad 660072
Ġskada 659834
Ġhunnit 659694
ĠfÃ¶rÃ¤ndring 659205
Ġordentligt 659201
Ġhaha 659097
opp 658944
ĠFinns 658150
ĠblÃ¥ 657798
Ġkommunala 657504
Ġdator 656758
ĠDÃ¤refter 655928
Ġpersonalen 655748
ĠÃ¤ndra 655726
Ġtanken 655099
Ġ2009 654937
fÃ¶retag 654526
ĠHenrik 654169
han 653783
Ãĸ 653436
ann 653402
ĠskÃ¤r 652785
Ġfria 652738
ĠST 652603
ĠAnn 651826
co 651610
Ġmorgonen 651563
ĠmÃ¥r 651348
Ġbelopp 651337
Ġdata 650980
ĠSol 650852
ningss 650595
Ġsmak 650460
Ġtecken 650196
Ġimorgon 649953
Ġ05 649945
Ġhittat 649278
ĠutstrÃ¤ckning 648815
Ġreklam 648793
Ġle 648584
akt 648270
Ġstarta 648033
kv 647872
ock 647814
Ġtakt 647670
under 647405
anska 647273
Ã¥d 647248
Ġkompetens 646793
Ġvarm 646702
met 646489
Ġpapper 646250
Ġ07 646140
Ġgemensamma 645974
Ġlugnt 645796
Ġsolen 645794
ĠRa 645675
ont 645603
ĠfÃ¶reningen 645414
tid 645389
ĠvÃ¤ster 645357
Ġvunnit 645234
Ġbevis 645173
Ġregn 644881
ket 644437
Ġdriver 644437
ĠsÃ¶nder 643784
Ġsvarta 643506
ĠfÃ¶ll 642922
Ġriktning 642473
ĠsÃ¤llskap 642406
ions 642152
ĠfÃ¶rhÃ¥llanden 641951
Ġledde 641403
ert 641237
ĠrÃ¤ttigheter 640791
ull 640692
ĠvÃ¤st 640341
Ġpublik 640278
Ġfungera 640102
ĠsjÃ¶ 639701
res 639585
bet 638808
ĠnÃ¥n 638621
ĠBÃ¥de 637925
Ġty 637655
ĠÃ¶ster 637454
Ã¤m 636821
ĠRo 636349
Ġhantera 636297
Ġtotal 636195
Ġ38 635940
Ġrakt 635596
Ġfritt 635383
Ġ03 635294
verksamhet 633962
Ġvisserligen 633540
rÃ¥d 633435
san 633386
Ġkontakta 633310
ĠgÃ¤ng 633149
Ġpubliken 633108
ĠhÃ¶rde 632988
Ġtyst 632852
Ġmiljon 632750
ĠMikael 632590
ĠinnehÃ¥ll 632118
ĠQ 631908
terna 631702
ĠKarin 631687
Ġsalt 631514
ĠsÃ¤ljer 630858
Ġpr 630790
Ġplaner 630341
Ġskett 630181
erades 629836
ĠtrÃ¤d 629451
ĠrÃ¤knas 629383
Ġekonomisk 629337
Ã¤g 628925
Ġjakt 628885
Ġetc 628756
Ġkriget 628705
ĠmÃ¶tet 628567
Ġsvenskar 628553
lingen 628385
Ġfinna 628327
aten 628229
Ġfredagen 628208
ev 627969
Ġtrevligt 627862
Ġrisken 627841
Ġdrag 627832
Ġdejtingsajt 627224
Ġledande 626395
ĠdÃ¶rren 626302
ĠAIK 626275
ick 626126
Ġpotatis 625731
ĠfÃ¤rdig 625109
Ġapp 625060
ĠItalien 624975
ĠVal 624689
ĠMo 624566
inn 624562
Ġnedan 624533
sÃ¥ 624522
Ġvind 624492
ĠBer 624405
ĠlÃ¶rdagen 623896
ĠmÃ¶jliga 623540
ĠanvÃ¤ndning 623518
ĠÃ¥rige 623422
Ġ2008 623403
Ġstandard 623356
ĠLennart 623329
stid 623194
Ġjordbruk 622733
kon 622512
Ã¤s 622500
ĠRing 622460
Ġoffentliga 622452
ĠfÃ¶rÃ¤ndringar 621871
Ġpositiv 621854
Ġ42 621191
Ġvinner 621026
ĠfÃ¶ljde 620696
ĠVissa 620672
ind 620520
ĠSer 620321
ĠJu 620262
igheten 619922
Ġinsats 619792
Ġkur 619682
Ġlivsmedel 619626
Ġmodell 619384
Ġsatsa 619305
ĠfÃ¶rmodligen 619099
Ġresor 618990
ĠÂ« 618753
ĠTrakten 618500
Ġnere 618422
pris 618244
Ġscen 618152
Ġint 617967
ĠIF 617444
ĠhÃ¤star 617378
Ġpatienter 617242
Ġordet 616217
Ġundvika 615940
hÃ¥ll 615891
ĠsjukvÃ¥rd 615811
Ġmoderna 615243
Ġinre 614776
ĠsÃ¶ndagen 614678
Ġkommunal 614180
ĠGÃ¶teborgs 613774
Ġtest 613134
Ġarbets 613060
ĠPa 612530
lad 612473
Ġloppet 612294
Ġmarken 612028
ĠfÃ¶rbÃ¤ttra 611990
Ġjobbat 611850
grupp 611594
ĠPolisen 611458
ĠInom 611100
ĠfÃ¤ngelse 610430
Ġdrift 609710
ĠKa 609661
ĠHe 609275
Ġdelvis 608443
Ġ02 608397
Ġbeskriver 608262
Ġhanden 608209
Ġart 607742
erande 607560
Ġarbetat 607447
ĠhÃ¤mta 607127
ĠKon 606630
ĠberÃ¤knas 606561
SK 606537
ĠsjÃ¶ng 606464
sut 606309
ĠfrÃ¥gar 606261
Ġme 605924
ĠSv 605789
ĠsÃ¥ledes 605765
Ġfrukost 605706
Ġfinal 605616
onen 604416
Ġpositiva 604143
let 604068
ider 603988
Ġpl 603408
Ġlevande 603197
ĠfÃ¶rsamling 603080
ap 602555
Ġdate 602461
yg 602280
ĠFÃ¥r 601956
Ġkurs 601930
splan 601203
Ġnjuta 600918
ona 600365
Ġ37 599903
ĠtillfÃ¤llen 599781
Ġfantastiska 599774
ĠÃħke 599448
ĠlÃ¤kemedel 599111
igare 598777
Ġporn 598568
ĠtrÃ¤dgÃ¥rd 598529
arn 598257
ĠjÃ¤tte 598197
Ġbord 597453
Ġstatliga 597230
ĠbostÃ¤der 597203
ioner 597188
ĠfÃ¶rekommer 597099
ĠMannen 597031
ĠGe 596860
Ġdesign 596740
Ġomfattar 596676
Ġenkla 596499
fri 596496
ĠlÃ¶sningar 596452
ĠrÃ¶da 595669
Ġslutar 595408
Ġmyndigheter 595067
Ġ2019 594978
Ġeld 594960
Ġkonstaterar 594827
Ġskott 594602
ĠRobert 594135
sgatan 594066
Ġskor 593975
Ġ 593884
ron 593708
Ġfritid 593580
Ġvardag 593203
Ġprovinsen 593052
ĠPris 593023
ĠfÃ¶rfattare 593017
ĠHel 592950
ĠstÃ¤lle 592836
ĠVilken 592639
Ġ04 592491
uk 592367
Ġdriva 591593
Ġosv 591545
ĠvÃ¤nda 591341
ismen 591290
ĠgÃ¶teborg 591122
ĠframgÃ¥r 590936
Ġdr 590586
Ġkonstigt 590482
Ġraka 590319
Ġradio 590253
Ġrummet 590251
Ġintill 589825
Ġfrihet 589550
Ġdollar 589395
Ġkommunikation 589057
ige 588768
Ġvd 588205
Ġ44 588083
slaget 587971
Ġtesta 587943
Ġstycken 587889
ĠvÃ¤r 587760
Ġrespekt 587501
ĠkÃ¶pt 587082
ub 586928
ĠLand 586488
Ġnaturen 586448
20 586223
Ġtvingas 586085
ĠTel 585021
Ã¤t 584939
ĠOr 584699
Ġdog 584678
ĠLite 584369
omrÃ¥det 584090
ligare 584077
ĠlÃ¤s 584020
Ġbidra 583968
inen 583768
ĠfrÃ¤msta 583701
Ã¶j 583578
Ġmotor 583552
Ġat 583282
Ġnyhet 583076
ĠfÃ¶rsÃ¤kring 583038
Ġregionen 582857
skan 582830
ĠgenomfÃ¶ra 582609
ĠmotstÃ¥nd 582567
Ġaktier 582183
ĠnÃ¶dvÃ¤ndigt 582152
ĠfÃ¶rsÃ¶kt 581942
Ġyrkes 581921
Ġfunktion 581457
dagen 581313
ĠFacebook 581046
ĠvÃ¤rt 580923
ĠTidigare 580710
Ġfack 580658
ĠomÃ¶jligt 580462
ĠVÃ¥ra 580112
Ġskit 579979
Ġomedelbart 579896
ĠvÃ¥gar 579871
ink 579655
Ġfrukt 579570
ĠLena 579351
Ġfamiljer 579347
kad 579153
Ġaktiv 578804
ĠSand 578291
Ġstrid 578206
ĠDag 577547
Ġvackert 577264
ĠÃ¶gonen 577011
Ġglada 576854
ĠrÃ¤tten 576588
ĠvÃ¤rsta 576411
Ġframtida 576405
Ġblommor 576325
Ġgemensamt 576226
Ġtom 576003
ĠÃ¶l 575912
gruppen 575567
ĠidÃ©er 575047
Ġfylla 574918
ĠLÃ¤gg 574738
ĠÃ¤mnen 574027
Ġplast 573927
Ġrecept 573765
Ġrapport 573750
Ġskaffa 573307
ĠmÃ¥ng 573245
Ġbodde 573173
ec 573099
du 573061
ĠlÃ¥na 572737
ĠKommer 572685
Ġ600 572450
Ġfaktum 572268
Ġmord 572211
Ġformer 572042
Ġerfarenheter 572032
ĠVÃ¤lkommen 572010
Ġsaknas 571991
Ġekonomiskt 571874
ĠâĢĻ 571209
Ġavsnitt 571119
ĠkarriÃ¤r 570630
arm 570614
Ġbesked 570449
ĠHennes 570048
Ġkorta 569748
Ġresan 569338
ĠvÃ¤gar 568923
vÃ¤g 568792
Ġfordon 568655
ĠfÃ¶remÃ¥l 567927
ĠInnan 567738
ĠRes 567523
ĠTyvÃ¤rr 567517
Ġvaror 567236
frÃ¥gor 566919
Ġbanan 566903
ĠhÃ¶jd 566543
ĠhÃ¤nger 566465
Ġvuxen 566392
Ġmej 566128
Ġskriv 565658
ĠfÃ¶rtroende 565533
ĠmjÃ¶lk 565419
Ġgjorts 565087
Ġkall 565004
ĠlÃ¤ste 564900
Ã¶l 564780
Ġtalade 564776
snÃ¤mnden 564534
Ġgift 564144
fall 564051
Ġlinje 563981
ĠfÃ¶reslÃ¥r 563927
ĠUtan 562839
Ġverkligheten 562745
Ġavseende 562677
Ġsynes 562590
Ġdesto 562078
ĠEscort 562018
Ġpassa 561959
Ġinitiativ 561621
Ġpartier 561523
Ġgrunden 561451
ĠÂ§ 560840
ĠsÃ¥nt 560110
ĠfÃ¤rger 559800
dan 559618
len 559526
ĠnÃ¥t 559078
mÃ¥l 559048
Ã¶t 558739
ĠfÃ¶rening 558468
ias 558262
10 558134
ĠReg 558124
ĠvÃ¤rre 557902
Ġomsorg 557730
Ġordinarie 557082
ĠFri 557038
Ġbrist 557018
svÃ¤gen 556651
ĠLuleÃ¥ 556490
Ġkvm 556473
Ġriksdag 556448
ĠBro 555595
ansen 555534
ve 555476
skar 554993
ĠunderhÃ¥ll 554833
Ġintressen 554485
Ġplanen 553954
Ġ< 553504
Ġkol 553459
Ġspara 553378
ĠFor 553357
Ġtorsdagen 553234
Ġmaskin 552961
IS 552880
Ġdejtingsidor 552640
somrÃ¥det 552123
tag 551982
Ġprova 551858
Ġringde 551443
ĠmÃ¥ndagen 551106
Ġ39 551004
lan 550994
jÃ¶ 550675
ĠpremiÃ¤r 550668
ĠFÃ¶rra 550218
Ġlink 550162
Ã¶st 550096
ĠsÃ¤kra 550001
ĠÃ¤gare 549671
ĠFrÃ¥gan 549343
ĠNils 549115
ĠDock 548802
Ġdiskutera 548464
Ġsamling 548350
Ġverket 548313
Ġ48 548310
Ġsvenskt 547903
Ġprofessor 547730
ny 547662
band 547567
Ġokej 547542
ĠjÃ¤vla 547514
sman 547459
Ġfinans 547203
ĠNÃ¤sta 546788
Ġskatte 546131
Ġrelation 545885
anen 545508
Ġsekunder 545277
Ġtisdagen 545090
ligheten 544381
ĠrÃ¤nta 544371
arbetet 544271
NA 544223
Ġfrisk 544218
ĠsvÃ¥rare 544108
Ġflickor 544039
Ġgen 544038
Ġsnabbare 543818
Ġonsdagen 543788
lande 543663
Ġverktyg 543439
Ġorganisationer 543248
ĠvÃ¤xa 543226
Ġtroligen 543010
ĠMe 542981
ĠframgÃ¥ng 542886
Ã¤gare 542822
Ġhann 542786
Ġkallt 542779
schef 542617
ĠAnnars 542505
Ġbruk 542439
ĠfÃ¶ra 542426
Ġavser 542266
ĠHoppas 541490
Ġ41 541317
Ġadress 541267
Ġtusen 541262
IN 541221
Ġbetydande 540918
program 540872
Ġdivision 540504
uss 540383
ĠVÃ¤sterÃ¥s 540368
ila 540216
larna 539765
Ġtransport 539661
ĠNor 539610
ĠgrÃ¤nsen 539550
Ġlik 539458
istisk 539354
ĠtrÃ¤ffade 539157
ĠKultur 539137
ĠkaraktÃ¤r 539112
end 539106
ĠdÃ¥liga 538340
ĠnÃ¥r 538195
Ġrekord 538064
ĠGu 538044
Ġ43 537105
ĠTid 537029
anter 537022
ĠHall 536957
Ġres 536887
ĠSan 536836
Ġovanligt 536704
ass 536538
ĠÃ¶ppnar 536488
isen 536483
Ġmaten 536465
Ġtotala 536392
Ġsannolikt 536372
pr 535822
ĠgÃ¤st 535730
ĠtrÃ¤ffar 535695
orp 535678
eter 535568
Ġvintern 535512
red 535299
Ġstopp 534809
Ġkg 534675
anta 534672
vid 534595
ĠinnebÃ¤ra 534536
ĠtillvÃ¤xt 534504
Ġperspektiv 534210
Ġdejtingsajter 534198
Ġsyster 534032
ningens 533682
Ġnytta 533455
ĠBa 533448
Ġhimla 533151
ds 533149
Ġhinner 532934
ĠgÃ¤lla 532785
ton 532640
Ġminskar 532632
ita 532374
Ġluften 532298
ĠSte 532207
Ġskid 531858
AT 531647
ĠfÃ¶ddes 531640
Ġpersonlig 531587
Ġnorska 531412
ĠbesÃ¶kare 531359
ĠslÃ¤kt 530727
one 530493
Ġspelas 530332
ial 530267
Ã¤ra 530173
Ã¶m 530020
Ġam 529925
Ġsocker 529704
Ġreser 529420
ĠslÃ¤ppa 529415
Ġnaturligt 529409
ĠVilket 529388
ĠsmÃ¥ningom 529275
ĠRom 529262
sÃ¤ttning 528946
ĠAndreas 528763
Ġenklare 528216
Ġinklusive 528195
ĠutgÃ¥r 527751
ĠbehÃ¥lla 527184
sterna 526896
Ġdubbel 526461
ĠNorrkÃ¶ping 526431
ĠFÃĸR 526307
ari 525981
Ġriktiga 525874
Ġ2007 525782
Ġvila 525777
ĠnÃ¤t 525720
ĠallmÃ¤nhet 525711
ĠgÃ¥rd 525463
Ġkor 525397
ĠsÃ¤ngen 525372
Ġbidrar 524659
ĠallmÃ¤nt 524613
iel 524574
ĠÃ¶kning 524333
Ġrygg 524157
stjÃ¤nst 524070
Ġpersonen 523972
ĠuppmÃ¤rksamhet 523803
ĠVilka 523261
Ġspringa 523209
ĠStad 522902
Ġsilver 522599
tra 522431
sel 522198
ĠhjÃ¤rta 522159
ktionen 522042
ĠlÃ¤rt 521603
platsen 521517
Ġminsta 521377
ĠtÃ¤vlingen 521002
ĠtjÃ¤nsten 520761
Ġaktie 520746
ĠstÃ¤llde 520660
Ġdikt 520263
ĠbestÃ¤mma 520178
Ġpolitisk 520123
chefen 520026
ĠCo 520023
Ġtrygghet 520015
ore 520008
tes 519767
Ġback 519298
Ġgemensam 519178
ĠdÃ¶da 519166
Ġ2006 519148
ate 518957
Ġ85 518752
ĠÃĸster 518483
Ġriskerar 518440
Ãħ 518291
ĠLinkÃ¶ping 518176
ING 518107
Ġvon 518013
ĠTotalt 517210
Ġgjordes 517017
ĠGÃ¤vle 516884
Ġkontrakt 516558
Ġfaller 516527
Ġ46 516491
Ġredo 516469
Ġintressanta 516284
Ġanslag 516073
Ġsnabba 515895
Ġun 515444
Ġstartar 515405
nande 515381
Ġeventuella 515205
dom 514723
Ġsyns 514684
Ġ800 514676
Ġort 514443
Ġfamilje 514374
eri 514357
ĠmilitÃ¤r 514190
Ġlek 514064
ĠsÃ¥klart 513954
ĠbrÃ¶d 513931
kan 513789
Ġsjukt 513221
ĠlÃ¥ga 513137
Ġdla 513128
Ġtoppen 512801
jen 512644
ĠfÃ¶rklara 512635
Ã¤ll 512088
ĠansÃ¥g 512080
ders 511941
EL 511886
Ġtittade 511799
ĠCity 511738
Ġwidoczny 511694
Ġzalogowanych 511690
Ġkommunerna 511578
isering 511563
ĠWest 510975
stedt 510875
ĠStorbritannien 510834
Ġregeringens 510545
Ġ06 510542
samt 510482
ĠrÃ¶ra 510476
ĠSkog 510136
drag 510069
ĠBox 509764
ley 509743
Ġlade 509701
Ġdefinitivt 509280
Ġorkar 509148
ĠTillsammans 509098
ĠfÃ¶rlust 508974
aga 508824
ĠVolvo 508744
ĠbesÃ¶ka 508521
sjÃ¶ 508405
styrelsen 508216
ĠArbet 508158
Ġtor 507934
Ġhistorien 507930
Ġstyrka 507854
ĠÃ¤ventyr 507592
RA 507583
ĠhushÃ¥ll 507432
ĠnÃ¥gonstans 506947
q 506807
ĠhÃ¤rlig 506618
Ġuppleva 505479
Ġfil 504590
unda 504179
Ġkar 504110
Ġintresserade 504046
ĠpopulÃ¤ra 503862
ella 503703
Ġhuvudsakligen 503629
laget 503510
ĠfÃ¶retagen 503421
Ġelev 503397
Ã¤ck 503388
ĠrejÃ¤lt 503367
Ġmax 503219
pel 503180
for 503126
ĠKjell 503092
frÃ¥gan 502782
Ġob 502778
ĠbestÃ¤mde 502730
ult 502217
skor 501895
ĠstÃ¤der 501876
etten 501600
Ġant 501382
ĠnÃ¥tt 500940
Ġkris 500656
Ġspar 500600
Ġmedia 500480
skatt 500458
Ġutrymme 500426
pro 500119
ĠgrundlÃ¤ggande 499939
brott 499821
Ġ1990 499671
Ġnationella 499556
Ġanslutning 499518
ĠfÃ¶rklarade 499429
Ġtogs 499233
ora 499221
ĠÃ¥riga 498051
oll 498025
eder 497769
Ġhemmet 497668
ĠmÃ¤ngder 497467
Ġtycka 497167
ĠkÃ¶ket 496848
ĠNorr 496805
ĠÃħrets 496701
Ġhamnade 496642
samma 496585
ĠvÃ¤lkomna 496551
ĠSamma 496224
Ġregion 495598
Ġsynpunkter 495518
Ġvelat 495384
ĠkÃ¤nslan 495307
ĠavstÃ¥nd 494984
ĠutlÃ¤ndska 494684
ij 494642
Ġtomt 494605
ĠfÃ¶rlorade 494493
Ġsiffror 494279
Ġtrivs 494272
Ġmajoritet 493959
ĠIgÃ¥r 493945
Ġing 493804
ationerna 493766
ĠIT 493583
pet 493551
iteten 493465
Ġallvarligt 493430
jan 493368
Ġverklighet 493284
Ġbi 493224
ite 493082
ank 492935
Ġ{ 492929
ĠrÃ¶relse 492814
Ġpratade 492699
aler 492513
stiden 492442
eringar 492279
ĠTom 492061
Ġspelarna 491773
ej 491646
oo 491613
Ġintervju 491462
Ġeventuellt 491232
ĠPlats 491152
ĠtÃ¤nk 491067
Ġdanska 490914
ey 490619
ĠSl 490605
ĠutfÃ¶r 489970
ĠstÃ¤llen 489830
Ġutrustning 489829
ĠhÃ¥l 489775
strand 489608
Ġkillar 489371
Ġ52 489276
ĠSvar 489238
Ġpolitiskt 489226
ĠEx 489120
ĠmisstÃ¤nkt 489113
Ġtydlig 488931
oner 488789
ĠvÃ¤ntas 488151
Ġdeltagare 488073
ĠfÃ¶rt 487991
ĠIS 487710
ĠvÃ¤lkommen 487613
ĠSpanien 487539
bok 487133
Ġupplever 487003
sch 486962
Ġstoppa 486727
ĠmiljÃ¶n 486463
Ġskuld 486423
Ġbekant 486385
Ġkompis 486374
ĠsÃ¤gs 486336
ĠgÃ¤llde 486234
ham 486056
ĠPar 485966
ĠvÃ¤xt 485920
Ġkomm 485898
ytt 485802
ola 485791
Ġroliga 485734
ĠvÃ¤nder 485306
tar 485081
ĠHelt 485053
Ġbel 484830
ĠBÃ¥da 484799
inna 484598
Ġ47 484348
hr 483891
ĠTjejer 483791
Ġmedborgare 483788
Ġdenne 483557
Ġbred 483414
ĠÃ¶st 483382
net 483108
ĠLÃ¥ng 483093
ĠÃĸst 483002
Ġfinalen 482980
Ġpromenad 482649
arl 482646
ĠrÃ¥ 482630
Ġlista 482476
ĠHelsingborg 482436
Ġera 481892
ĠPaul 481852
Ġ} 481843
Ġ1980 481718
vÃ¤r 481711
ĠbrÃ¶st 481658
stÃ¤llning 481576
ĠÃ¶verallt 481376
Ġbrittiska 481201
Ġmar 481113
ĠefterÃ¥t 481104
Ġnoga 480950
ĠgÃ¤ster 480921
Ġkval 480793
Ġcasino 480661
Ġutomlands 480595
Ġelva 480545
ĠikvÃ¤ll 480535
ĠGustav 480508
Ġarbetade 480099
Ġtvungen 480096
anda 479719
Ġbilderna 479521
Ġanges 479095
IT 479041
bild 478995
ĠstÃ¤mmer 478952
Ġhandlade 478905
Ġprocess 478832
Ġsegern 478822
ĠgrÃ¶na 478700
Ġbredvid 478695
Ġexport 478572
Ġka 478286
ĠTerrÃ¤ngen 478257
ningsb 478250
Ġkv 478194
Ġtidning 478019
ĠanmÃ¤lan 477833
ry 477686
ĠKvinnor 477593
Ġlandslag 477558
ĠallmÃ¤nheten 477390
Ġ250 477300
ĠSyd 477110
ĠlÃ¤genheter 477086
Ġplocka 476933
ĠsÃ¤ng 476871
ĠbestÃ¤mmelser 476557
ĠbedÃ¶mning 476500
ĠStig 476321
unt 476200
Ġstatistik 476127
Ġkallad 475976
ĠstrÃ¶m 475660
ĠHÃ¥kan 475500
Ġupplevelse 475499
ÃĦ 475469
40 475226
Ġandel 475108
Ġbehovet 474826
ica 474683
skola 473964
Ġrolig 473955
OL 473830
ĠutÃ¶ver 473830
Ġnyheter 473582
led 473558
gÃ¥ngen 473478
Ġextremt 473416
ĠsmÃ¶r 473222
Ġformen 472972
Ġklassiska 472742
ust 472500
Ġflicka 472393
ĠskÃ¶n 472079
Ġkvinnliga 472043
Ġ1970 471841
ĠinkÃ¶p 471238
ĠGo 471155
ĠtrÃ¤nar 470837
Ã¥rd 470803
Ġsov 470712
Ġbollen 470615
Ġkamp 470590
ĠWe 470580
ph 470519
ly 470496
ĠCarlsson 470399
ĠnÃ¤st 470189
ĠKar 469636
Ġdebatten 469598
Ġet 469552
ĠLO 469510
Ġyou 469342
Ġpol 469080
Ġhandlingar 468936
ĠrÃ¶sta 468683
pat 468668
Ġeskort 468198
ĠMÃ¥l 467970
ĠmÃ¶ten 467712
ĠangÃ¥ende 467624
ĠlÃ¤nderna 467518
ĠfÃ¤rre 466986
Ġ54 466903
sÃ¶ 466835
Ġundervisning 466682
ĠmÃ¶nster 466637
Ġsynd 466614
ningsfÃ¶r 466369
rande 466334
Ġ59 466021
varande 465858
Ġforskare 465727
lingar 465515
ĠPrecis 465289
Ġdjup 465120
ĠuppÃ¥t 465117
iens 465106
ĠfÃ¶rsvann 464997
Ġmetod 464892
ĠVÃ¤xjÃ¶ 464706
Ġ49 464175
ĠDan 464147
Ġklassen 463844
ĠtillgÃ¤ngliga 463827
ĠMark 463724
ĠmÃ¤nnen 463689
Ġsant 463553
Ġryggen 463521
ĠHolm 463285
Ġstudent 463160
Ġtexten 463120
Ġskiljer 462943
Ġscenen 462935
ĠMax 462918
oss 462791
Ġlandsting 462729
ĠMalm 462645
Ġskydda 462356
af 462098
Ġjobbigt 461769
illa 461657
Ġost 461583
ĠbestÃ¤mmer 461370
ĠgÃ¥rden 461369
Ġegendom 461366
Ġmod 461350
ĠbetrÃ¤ffande 461305
ĠlÃ¤ns 461099
ningsm 461093
ikt 461016
ĠlÃ¤ngst 460735
Ġthai 460717
Ġmun 460372
ko 460315
ĠfÃ¶rsvinner 460165
ya 459694
ĠCar 459655
ĠhÃ¥lls 459438
Ġad 459186
Ġdistrikt 459164
ĠVÃ¤stra 459112
ĠhÃ¤vdar 459100
ĠnÃ¶d 459081
ĠsjÃ¶n 458976
Ġanalys 458873
Ġdetaljer 458669
fÃ¶rening 458614
Ġinslag 458529
Ġdeltog 458476
ĠÃ¶n 458416
Ġminne 458348
ĠkÃ¶rt 458214
ĠframÃ¶ver 457987
ĠbÃ¤ra 457962
olog 457938
ĠHos 457792
film 457578
ĠHag 457578
ĠfÃ¶rhand 457422
ĠfÃ¶rb 457278
SS 457253
Ġstyrelse 456926
ĠAd 456777
Ġfika 456740
ĠSm 456737
vs 456672
staden 456548
Ġaktivt 456461
Ġlust 456448
ĠrÃ¶ster 456397
etter 456227
ĠÃĦ 456191
ares 456170
Ġkonto 455993
ĠframfÃ¶rallt 455962
Ġutl 455826
ĠnÃ¶jda 455660
hand 455540
Ġtunga 455514
Ġit 455489
ĠsÃ¥n 455430
ĠLeif 455412
ĠLag 455232
Ġaning 455132
Ġengagemang 454913
ĠsÃ¥lunda 454784
atan 454679
ĠlÃ¥tar 454623
ĠmÃ¥tt 454374
Ġrena 454310
uv 454268
Ġmag 453911
ura 453875
Ġ2020 453692
elserna 453611
dar 453220
ĠutstÃ¤llning 452889
Ġlitteratur 452789
ĠKÃ¶p 452457
ĠJesus 452141
Ġstarkare 451985
ĠSundsvall 451883
ula 451775
Ġdejtingsida 451726
ĠSal 451662
ĠVet 451509
ĠÃ¶stra 451507
Ġdrabbas 451353
ĠSÃ¶dra 451328
Ġavgift 451227
lÃ¶s 450957
Ġhav 450931
ĠSc 450814
iz 450761
Ġdjupt 450587
ĠVÃ¥rt 450522
ĠanstÃ¤llning 450492
ĠGamla 450479
Ġlistan 450303
ĠMat 450175
Ġeuropeiska 450167
vÃ¤rde 450104
Ġhud 449950
ess 449921
tr 449859
Ġbehandlas 449751
klass 449457
Ġnyss 449400
Ġsmitt 449364
Ġkombination 449339
iske 449030
ĠBor 449024
Ã¥ren 448914
ĠhÃ¤rligt 448765
Ã¤st 448611
Ġfemte 448540
ĠJÃ¶nkÃ¶ping 448532
Ġvice 448432
Ġhr 448275
ĠGustaf 448141
ĠtrÃ¥kigt 448005
ĠstÃ¥l 447842
ĠRed 447820
Ġskedde 447789
Ġhinder 447734
Ġbloggen 447618
Ġsy 447447
ĠVÃ¤l 447360
Ġhandling 447208
ĠInget 447204
SA 447174
Ġmetoder 447153
kten 447100
ĠÃ¥sikter 446915
mannen 446888
rÃ¤tten 446837
ĠPettersson 446810
Ġoffentlig 446241
ĠMichael 446228
ĠmÃ¤nskliga 446147
Ġnormal 446121
Ġhal 445661
Ġtalman 445629
hn 445571
Ġfara 445554
ĠSara 445523
Ġhundar 445349
Ġbryta 445211
Ġkontakter 445143
LL 445013
Ġuppger 444975
resa 444568
ĠhjÃ¤rtat 444238
Ġsjukhuset 444196
har 444137
klubb 444052
Ġmagen 443782
Ġstannar 443655
kort 443551
Ġfann 443529
ĠtrÃ¤ffas 443425
Ġstadens 443268
Ġkron 443266
Ġwebbplats 443208
Ġfakta 443187
spelare 443151
heter 443032
Ġhelhet 442947
pan 442853
Ġallting 442650
ĠBorÃ¥s 442588
ĠEm 442510
Ġomfattning 442498
Ġeffektivt 442352
Ġspeciella 442340
Ġstrand 442193
Ġhalvlek 442102
AG 441777
dagar 441743
ĠgrÃ¶n 441711
Ġ2005 441609
Ġ95 441518
Ġbutiker 441507
Ġdricka 441383
ĠOlle 441357
Ġgenast 441185
Ġbibliotek 440941
orer 440779
org 440664
ĠsjÃ¤l 440648
iten 440393
Ġplanering 440079
Ġtung 440030
Ġsprang 440003
ende 439890
Ġbud 439646
Ġansvaret 439594
ĠAntalet 439551
ĠÃ¤renden 439546
Ġkortare 439285
ĠhÃ¥rda 439129
ĠdÃ¤rifrÃ¥n 439066
skapet 438886
Ġcivil 438880
ĠHuvud 438793
Ġrock 438778
ĠstÃ¥tt 438284
AS 438262
ĠrÃ¶k 438249
Ġinflytande 438155
ppen 438057
Ġdiskussion 437604
utt 437416
ĠhÃ¤nga 437399
Ġaktiva 437208
ĠBlir 437141
Ġfixa 436946
sav 436718
Ġgrann 436629
ĠMina 436521
Ġfinansiella 436507
Ġlov 436404
ĠHam 436230
ĠvÃ¤ 436217
her 436210
Ġpraktiskt 436196
elt 436030
Ġdatorn 435687
Ġgolvet 435664
Ġspets 435128
ĠÃ¶ppnade 434872
rarna 434752
rÃ¥ 434678
Ġpaket 434419
platser 434023
Ġskapat 433474
Ġorganisationen 433205
orm 433189
Ġreserv 433088
dem 432979
Ġstolt 432968
Ġstress 432908
Ġblott 432899
ĠfÃ¶rord 432883
ĠKr 432663
our 432572
Ġ99 432523
ĠmÃ¤nniskan 432520
ĠfÃ¶regÃ¥ende 432454
Ġgl 432400
ack 432383
ĠvÃ¤xte 432304
pe 432033
Ġ700 431870
11 431835
ĠutfÃ¶ra 431742
30 431245
ĠkÃ¤r 431115
ĠInternet 431103
Ġbalans 431072
ĠnÃ¤tverk 430878
ĠtillfÃ¤llet 430801
Ġsh 430654
ĠOl 430585
ĠdÃ¶ 430407
ĠfÃ¶ljt 430330
Ġkant 430072
vÃ¤rd 429977
Ġdatum 429887
Ġ1000 429559
cka 429484
Ġmass 429375
ĠsvÃ¥righeter 429339
ĠÃ¶nskemÃ¥l 429214
ansk 429171
Ġsim 428601
ssystem 428453
Ġlyfta 428397
Ġstatens 428307
Ġsammanlagt 428301
Ġmedicin 428243
ĠBy 427970
Ġplatt 427896
ĠutslÃ¤pp 427854
gas 427804
ĠVD 427792
Ġpraktiken 427679
Ġkyrk 427643
Ġtidningar 427465
ĠsÃ¤r 427381
Ã¤nk 427320
Ġem 427238
ira 427187
ĠVis 427008
Ġmode 426845
Ġkatt 426607
Ġkostnaderna 426448
Ġminnes 426250
ĠKanada 426234
ĠNyheter 426189
ĠCa 426067
ivt 426033
lik 425968
ministern 425816
ĠhÃ¶ja 425675
ĠRam 425638
Ġgatan 425625
ĠAlexander 425590
anten 425020
Ġlagom 424668
Ġolja 424638
komm 424419
Ġsituationer 424412
ĠjÃ¤rn 424385
Ġamerikansk 424282
Ġ1800 424217
ĠNorra 424211
ĠKonst 424041
vall 423989
ĠGod 423976
lagen 423922
Ġhyra 423845
Ġ53 423826
Ã¤ngen 423704
Ġlagar 423487
bolaget 423323
ĠDeras 423139
Ġinfo 423020
Ġinternationell 422977
far 422941
Ġbutiken 422703
Ġchoklad 422604
Ġred 422450
Ġvakt 422412
ini 422384
ĠStrÃ¶m 422365
ringar 422152
ĠÃ¤mnet 422051
ĠhÃ¤ndelser 421781
ledare 421778
Ġbest 421591
EJ 421495
ĠÃ¤lskade 421438
vÃ¤rlden 421437
bolag 421415
Ġorgan 421383
enter 421338
Ġdamer 421309
ĠÃĦndÃ¥ 421252
Ġloss 420738
Ġaktivitet 420715
kel 420674
OM 420661
atet 420431
Ã¤rt 420258
ĠSport 420204
Ġfunkar 420179
Ġsamla 419765
ĠfÃ¶rÃ¤ldrarna 419736
Ġplanerar 419429
Ġverkade 418828
Ġsverige 418801
Ġfundera 418688
hall 418495
Ġpolitiken 418456
ĠvÃ¤dret 418163
ĠEmma 418108
ĠTror 418011
ĠBen 417993
ĠfÃ¶rutsÃ¤ttning 417960
Ġorden 417847
ĠlÃ¤sare 417819
ĠMusik 417555
Ġ56 417532
Ġegenskaper 417449
Ġflyttar 417319
ĠTim 417177
ĠÃ¶gonblick 417177
Ġso 417104
Ġeffektiv 417032
Ġfartyg 416792
ĠIsrael 416632
Ġsjuka 416630
Ġting 416419
Ġverkliga 416281
Ġupplysningar 416233
ĠstÃ¥nd 416077
Ġlast 415767
Ġposition 415736
kvist 415609
Ġdi 415534
ĠLÃ¶fven 415420
Ġhellre 415399
ĠanvÃ¤nt 415297
bud 415217
skog 414824
Ġutomhus 414758
ĠtvÃ¤rtom 414756
sar 414737
Ġminut 414718
arbetare 414424
ĠÃ¥ring 414300
lÃ¶sa 414067
0 413994
ĠVer 413882
Ġtrygg 413880
Ġansiktet 413856
Ġskickar 413793
Ġdygn 413733
Ġpekar 413698
ĠEuro 413683
Ġutsikt 413631
19 413551
Ġslipper 413329
ĠEN 413311
EM 413213
ĠlÃ¤ngd 413085
Ġminskat 413064
ĠhÃ¶lls 412963
ĠvÃ¤ntade 412761
sprogram 412477
Ġbarnbarn 412403
bro 412382
Ã¶g 412265
Ġslagit 412232
ĠuppstÃ¥r 412216
Ġflytt 412141
ino 412139
Ġco 412100
Ġtypen 411980
Ġstannade 411783
Ã¶sa 411643
Ġbefolkningen 411626
sre 411575
ĠstÃ¤llt 411457
Ġhalva 411298
ĠLill 411068
Ġteam 410792
Ġmodeller 410645
Ġstarten 410645
ĠFram 410482
Ġprofil 410452
bor 410407
ĠCon 409962
ĠÃ¤ 409764
ĠintrÃ¤ffade 409673
ĠjÃ¤m 409429
ĠBygg 409227
mor 409029
Ġ64 408785
ĠRegion 408769
ĠvÃ¥rden 408764
nes 408643
Ġunderbara 408590
arbet 408519
skr 408514
Ġlin 408486
lare 408320
Ġansvarig 408272
Ġmotsvarar 407521
ĠvÃ¤stra 407108
Ġnord 407096
Ġtydliga 406866
ĠÃ¥terstÃ¥r 406743
ich 406738
full 406615
Ġflertal 406611
Ġ2004 406556
Ġpaus 406500
Ġag 406418
Ġmusiken 406187
Ġbott 405774
ca 405692
ĠrÃ¶rande 405672
Ġiaf 405663
ĠlÃ¤net 405653
ĠÃ¥tal 405623
ĠArne 405500
Ġsms 405444
ĠsvÃ¤ng 405305
ĠMassage 405255
ĠfÃ¶rdelar 405187
ED 404937
ĠvÃ¤ntat 404924
ure 404876
ĠFick 404786
ĠKÃ¶penhamn 404781
Ġbror 404688
Ġlaga 404631
banan 404603
ĠBorg 404537
Ġ57 404309
12 404226
ensen 404152
Ġkonkurrens 403920
ĠBill 403889
ĠÃ¥terigen 403844
ĠSund 403702
barn 403341
Ġhette 403323
Ġhoppa 403240
bÃ¤r 403091
ĠofÃ¶r 403060
Ġhamn 402883
ĠlÃ¤genheten 402602
Ġslippa 402370
Ġsid 402310
ĠbesvÃ¤r 402299
Ġvarma 402221
ĠjÃ¤rnvÃ¤g 402133
Ġkung 401967
Ġsoffan 401875
ologi 401818
Ġbussen 401805
Ġsj 401768
gi 401762
ĠHer 401759
Ġleta 401613
ĠmÃ¶tte 401609
ĠTomas 401549
Ġmenade 401372
Ġutnyttja 401327
Ġban 401035
ktion 401015
still 400918
skott 400726
Ġduktig 400722
off 400644
ille 400574
ĠmedfÃ¶r 400563
Ġ1960 400393
Ã¤nt 400357
ĠDal 400280
Ġunderbart 400258
Ġskratt 400141
ĠtillÃ¤gg 399847
Ġdigitala 399708
Ġytterst 399596
ĠNa 399527
Ġutbud 399487
Ġlett 399318
Ġlegat 399305
Ġfasta 399266
ĠGÃ¥ 399077
Ġmoder 398989
Ġ58 398886
ĠBritt 398678
ĠlÃ¥gt 398678
Ġrollerna 398666
stÃ¤ll 398639
Ġtradition 398588
Ġ51 398468
ĠjÃ¤mfÃ¶relse 398441
Ġna 398402
ĠEmil 398240
ilj 398221
anna 398182
Ġ120 397933
ĠstÃ¤lls 397800
Ġ73 397560
Ã¥tt 397477
ĠRegeringen 397404
Ġtufft 397403
ĠDÃ¤rmed 397382
grupper 397368
ox 397366
ĠfÃ¶rstod 397305
aden 397113
bilder 396962
gÃ¶r 396959
Ġbilligare 396911
verksamheten 396801
Ġkommentarer 396734
ystem 396718
Ġrikt 396676
ĠberÃ¶r 396617
ĠfÃ¶rfattaren 396309
Ġsvaret 396239
Ġkristna 396135
ĠKarlstad 396091
Ġsingel 396062
Ġspeciell 395948
60 395947
Ġenhet 395890
oj 395738
ĠjÃ¤ttebra 395634
Ġavtalet 395532
Ġpraktiska 395190
Ġbyggt 395102
ES 394923
ĠWall 394893
ĠSpel 394707
Ġunika 394568
Ġrepresentanter 394530
ĠRik 394420
ĠKungl 394218
Ġdyker 394191
NING 394136
ish 393917
Ġflykting 393909
skÃ¤r 393897
ĠgrÃ¤nser 393759
ĠArbetet 393640
Ġstranden 393504
ĠHus 393401
Ġtax 393323
Ġev 393321
Ġdelas 393047
ĠBertil 393037
ĠÃ¤kta 392641
Ġavdelning 392521
ĠGotland 392429
ĠfÃ¶rstÃ¥else 392352
ĠvÃ¤nde 392299
ĠOla 392217
ĠGa 392206
ĠfÃ¶rhÃ¶r 392194
ĠPorn 392175
ĠÃ¤ga 392128
ĠMor 392078
Ġkonsekvenser 392064
ĠHell 392022
Ġarbetsgivare 392007
Ġteknisk 391960
ĠFilm 391841
Ġskickas 391715
ĠfrÃ¥gorna 391634
Ġmyndighet 391624
pass 391612
Ġarbetsuppgifter 391499
ĠJonsson 391489
70 391454
reg 391369
Ġjobbade 391233
Ġakt 391187
alm 391130
Ġmisstag 391062
ĠmÃ¶jligen 391034
ĠMattias 391022
ĠHalmstad 391004
ĠaffÃ¤rer 390972
dal 390952
spÃ¥r 390948
Ġekonomin 390769
ĠsÃ¶kte 390764
po 390495
Ġsexiga 390354
innan 390248
smÃ¥l 390109
sidan 390097
Ġol 390097
ĠfÃ¶rlorat 390061
ĠtjÃ¤na 389812
Ġpartierna 389625
Ġma 389613
Ġkilo 389611
ĠSuper 389351
Ġbeteende 389309
ĠRÃ¤tt 389223
Ġsovrum 389199
Ġkurser 389018
ppa 388981
stÃ¶d 388671
ĠSocialdemokraterna 388477
Ġbonus 388451
ĠTommy 388413
bruk 388304
Ġund 388299
ĠsÃ¶kt 388172
Ġfira 388171
ĠTro 388153
iter 388067
Ġombord 387908
Ġskick 387749
ĠEric 387647
Ġmjuk 387277
sak 387271
Ġoberoende 387255
ĠÃ¤rendet 387221
Ġnaturliga 387211
Ġintryck 387157
qu 386910
Ġdejt 386876
Ġlant 386850
departementet 386819
Ġytter 386812
ĠTe 386695
Ġintresset 386668
bel 386660
ĠSÃ¶k 386478
50 386396
Ġknulla 386299
Ġrest 386256
Ġbio 386245
sstyrelsen 386224
Ġsur 386081
ager 386041
kat 385998
bi 385848
Ġolje 385800
Ġok 385768
samhet 385670
Ġfran 385661
Ġbjuda 385601
Ġbeslutat 385421
ĠbjÃ¶d 385324
ĠSimon 384995
ĠSkriv 384933
Ġdisk 384838
Ġsonen 384809
shus 384453
Ġtuff 384385
ĠFa 384383
ĠMarcus 384355
Ġfett 384307
yk 383844
ĠChrister 383837
Ã¤kt 383750
ĠnÃ¤mnda 383651
Ġmo 383645
quist 383621
dat 383421
Ġkommentar 383318
Ġladda 383261
Ġhinna 383238
Ġavl 383079
Ġsnygg 382994
Ġmakten 382950
uren 382888
Ġek 382839
kta 382743
Ġkonstatera 382653
bilar 382621
politik 382470
sc 382454
ĠfÃ¶rbund 382187
ĠLeague 381898
Ġz 381817
ĠFem 381795
Ġnational 381681
dahl 381636
Ġfyr 381613
ĠDjurgÃ¥rden 381567
aget 381546
Ġutbildningen 381515
Ġfabrik 381346
Ġverka 381286
ĠhÃ¤lso 381211
ygg 380789
ĠLisa 380743
Ġinspiration 380660
Ġstilla 380608
ue 380596
ĠÃ¤ndringar 380594
ĠMy 380579
Ġstyra 380527
ĠDi 380522
atta 380424
Ġsvag 380352
ĠQu 379955
Ġrelationer 379786
Ġgrov 379618
ĠAlltsÃ¥ 379578
Ġhumor 379538
Ġinternationellt 379467
Ġliter 379419
Ġ67 379255
Ġkam 379187
Ġinser 379081
Ġdeltar 379006
ĠGran 378826
Ġkrafter 378742
istiskt 378699
ĠsÃ¶mn 378699
Ġlive 378629
ĠKo 378584
Ġnyckel 378479
Ġursprung 378353
Ġboll 378273
aste 378260
ĠBet 378083
ĠskÃ¶t 378066
Ġsamlade 377992
Ġverksamheter 377934
ral 377923
ĠâĢĶ 377908
ee 377825
ĠFree 377782
Ġ66 377659
Ġfunktioner 377534
Ġringer 377470
ĠPark 377457
Ġorder 377333
Ġsorg 377211
ĠDels 377158
Ġbyn 377054
ĠKn 377000
Ġkompisar 376925
Ġvarv 376890
fÃ¶reningen 376828
Ġstorm 376560
igheter 376395
ĠMP 376389
Ġtim 376221
Ġcancer 375933
Ġbordet 375839
ĠVÃ¤lj 375686
Ġdistans 375613
Ġnoll 375531
vi 375507
Ġfinska 375444
ĠEskilstuna 375189
ĠÃ¤mne 375157
ĠtrÃ¤naren 375087
ĠKarlskrona 375071
erats 375068
ĠTur 374939
ĠÃ¤ndring 374816
Ġreglerna 374758
Ġsatsar 374708
ire 374679
Ġskillnaden 374669
ĠOscar 374642
Ġframme 374618
Ġunderbar 374601
ĠledamÃ¶ter 374556
Ġfunderar 374546
ĠavgÃ¶ra 374489
Ġenlighet 374247
Ġindivider 374104
ĠhÃ¤nderna 373872
Ġhockey 373858
Ġ63 373792
ĠKung 373767
Ġaktuell 373759
ĠSjÃ¶ 373603
Ġtraditionella 373586
ale 373538
Ġkvinnorna 373504
rÃ¤ 373407
ĠLake 373317
Ġrestauranger 373271
Ġnordiska 373157
Ġpartner 373064
ĠInfÃ¶r 373032
Ġroman 373020
Ã¤v 372992
ĠJapan 372906
Ġpassade 372903
Ġboka 372890
Ġerbjudanden 372869
Ġdum 372827
Ġartiklar 372825
Ġ72 372816
ĠUr 372772
ĠhÃ¤sten 372678
Ġborgerliga 372659
mÃ¤n 372605
ĠBÃ¤sta 372428
ĠTo 372347
les 372254
Ġlyssnar 372134
eta 372028
Ġgrav 371926
ĠskÃ¶ter 371919
Ġarg 371840
mo 371807
ĠinstÃ¤llning 371668
ĠjÃ¤mfÃ¶r 371631
ĠhÃ¤rliga 371437
ĠlÃ¶rdags 371437
orten 371236
ĠDig 371197
ĠMon 371194
utbildning 371124
ĠLasse 371064
Ġ78 371014
Ġinf 370897
Ġberedd 370704
ĠutgÃ¥ng 370498
ct 370488
ĠBerlin 370231
RO 369881
ĠkÃ¶rning 369770
ĠÃ¤ndamÃ¥l 369746
Ġlog 369713
Ã¥riga 369635
ĠhÃ¥llit 369416
Ġunderlag 369332
Ã¤ren 369329
RESS 368827
Ġstabil 368220
ĠfullstÃ¤ndigt 368097
Ġforsknings 367886
ĠtÃ¥get 367867
Ã¤der 367812
steg 367779
Ġpop 367699
ĠgrÃ¥ 367255
ĠNe 367247
ĠRÃ¶r 367219
bÃ¤ck 366932
Ġdetalj 366739
Ġov 366633
Ġcor 366594
fs 366374
ĠtÃ¤vlingar 366173
ĠFF 366108
Ġletar 365988
ĠhÃ¤ndelse 365948
ĠdÃ¶r 365883
ĠMalin 365799
Ġhustru 365777
ĠSn 365774
start 365760
Ġgifta 365591
ĠNo 365571
ĠpÃ¥gÃ¥ende 365192
ond 365171
rakt 365148
Ġstudenter 365087
Ġeftermiddag 365033
out 364989
ork 364971
ĠbegÃ¤r 364971
holms 364938
Ġblock 364862
ĠfÃ¶rklaring 364847
Ã¶p 364807
Ġfre 364743
Ġbransch 364713
ĠjÃ¤mn 364310
Ġkontrollera 364270
problem 364183
blom 364180
partiet 364109
Ġinriktning 364079
minister 363983
Ġheta 363885
Ġproblemen 363821
Ġbadrum 363729
Ġkniv 363700
Ġ69 363646
Ġsuttit 363483
Ġsjunger 363260
za 363206
Ġregerings 363144
ii 362903
Ġtra 362617
ĠhjÃ¤rt 362585
Ġinvesteringar 362562
Ġlarm 362538
ĠOCH 362534
ĠAnton 362510
kn 362416
Ġfaktorer 362404
Ġsand 362119
Ġtusentals 362012
Ġtrafiken 361915
ĠTrump 361751
ĠhÃ¥ret 361740
ĠmÃ¶rk 361503
ĠSw 361453
ringen 361234
Ġhunden 361137
Ġutsatta 361093
Ġout 361069
Ġbenen 361068
Ġoff 361067
Ġmyndigheterna 361006
ĠGustafsson 360954
ĠfÃ¤rd 360902
ĠJansson 360652
ĠMal 360412
ĠslÃ¤pper 360323
Ġrekommenderar 360294
ĠglÃ¶mma 360250
Ġpojkar 360226
Ġekonom 360199
tern 360030
ĠSovjet 360029
rev 360022
Ġavgifter 359961
Ġgeneral 359873
Ġtalat 359815
Ġsorts 359695
rin 359670
makt 359653
raf 359625
Ġreg 359592
Ġhttp 359087
Ġallvarliga 359001
Ġansikte 358952
Ġvilla 358938
somrÃ¥de 358893
eden 358828
Ġstycket 358787
Ġras 358773
ĠResultatet 358652
ĠanhÃ¶riga 358523
Ġuppl 358488
Z 358405
ĠmarknadsfÃ¶ring 358356
Ġtungt 357900
Ġbrister 357853
ho 357808
Ġbilligt 357595
Ġslutligen 357406
ĠRadio 357400
Ġinstrument 357157
Ġbranschen 357113
Ġavlidit 357084
ford 357033
Ġislam 356979
ĠupptÃ¤cka 356914
ĠhÃ¤ls 356908
Ġmatcherna 356899
Ġnegativa 356738
Ġplacering 356686
ĠPl 356659
Ġskapade 356467
fart 356403
Ġledig 356402
Ġeuro 356379
ĠentrÃ© 356196
Ġhotellet 356169
Ġavled 356123
chen 356060
ĠnordvÃ¤st 355947
ĠtrÃ¤ffat 355861
ĠtingsrÃ¤tt 355720
Ġmy 355695
ĠtvÃ¤tt 355665
Ġbyggnader 355455
Ġfarligt 355438
ĠsprÃ¥ket 355334
we 355230
Ġtids 355190
Ġerin 355174
Ġplanet 355038
ĠsydvÃ¤st 354979
ĠlÃ¤mplig 354938
atur 354818
Ġsyskon 354813
Ġyttre 354725
ix 354659
ĠfÃ¶rÃ¤ndras 354550
ĠfrÃ¤mmande 354333
000 354324
ĠMellan 354315
ris 354289
vÃ¤l 354253
Ġhy 354218
Ġnot 354204
IF 354056
Ġkonkurs 354017
sproblem 353979
vatten 353934
ĠmÃ¤nniskors 353924
ĠuppfÃ¶r 353890
ogen 353802
Ġhet 353744
ĠNÃ¤rmaste 353599
ĠMedan 353598
Ġkapacitet 353517
Ġsamlas 353357
nan 353145
Ġfastigheten 353072
Ġ900 353019
spolitik 353011
ĠfÃ¶rmÃ¥n 352896
Ġversion 352660
Ġkonsert 352480
Ġtaket 352423
ĠFar 352344
Ġklipp 352212
smÃ¤n 352204
Ġfrakt 352146
ĠtvÃ¥a 351955
Ġkampen 351932
ĠArt 351925
yck 351916
ĠbrÃ¶llop 351878
ĠHÃ¶r 351859
vÃ¥rden 351754
jobb 351719
ID 351682
Ġtexter 351637
ĠPatrik 351493
ĠmÃ¤nniskorna 351457
Ġutrikes 351435
ĠBlack 351259
Ġoffer 351056
Ġbarns 351024
Ġbensin 350998
ĠsÃ¶kande 350990
ppar 350857
llt 350810
lÃ¤ggning 350749
fullt 350697
Ġbetalas 350623
Ġinvestering 350620
ĠDa 350613
Ġinter 350598
Ġgo 350547
Ġdokument 350536
ĠgrÃ¤ns 350526
ĠLo 350345
ĠamatÃ¶r 350316
ĠTycker 350284
ĠanstÃ¤lld 350284
Ġtalets 350253
Ġhalvt 350137
ĠpÃ¥verkas 350025
Ġmedveten 349828
ĠstÃ¤rka 349752
ikern 349701
bon 349679
ĠhÃ¥llet 349489
Ġpga 349343
Ġxxx 349263
Ġagera 349152
Ġ2003 348995
Ġ68 348873
ĠtillgÃ¤nglig 348835
Ġsyftar 348819
Ġkosta 348801
ĠanvÃ¤nde 348580
Ġviktigare 348553
ĠHÃ¤ll 348525
ĠÃ¶re 348470
tem 348385
lands 348381
Ġ74 348240
ĠfÃ¤lt 348152
kor 348105
ĠutgÃ¥ 347982
eda 347980
skon 347904
storp 347885
ĠSJ 347877
ĠÃ¤ktenskap 347792
Ġsnygga 347735
Ġarbetsmarknad 347588
ĠefterfrÃ¥gan 347551
Ġslott 347346
ĠfÃ¶rlora 347283
Ġregi 347277
ĠstÃ¶r 347191
Ġ76 347190
splats 347048
Ġvattendrag 347014
Ġhistoriska 346863
ĠlÃ¤mpligt 346754
ĠvÃ¤gg 346679
Ã©er 346675
ĠpÃ¥sk 346624
ĠupptÃ¤ckte 346611
ĠSnart 346544
kte 346523
ĠSP 346406
ĠSofia 346327
Ġannonser 346327
ĠundersÃ¶ka 346314
ĠmÃ¶jligheterna 346265
svar 346141
Ġtacka 346094
ĠPr 345999
karen 345964
fel 345751
Ġmeddelade 345741
mÃ¤ssigt 345570
ric 345562
Ġthaimassage 345550
Ġ1900 345520
Ġsamverkan 345515
Ġtrevliga 345433
ĠAN 345391
Ġstudera 345345
Ġutmaningar 345314
ĠNorden 345221
ĠfÃ¶rl 345207
ĠThor 345190
mm 345176
Ġdomstol 345008
ĠPo 344897
Ġkost 344705
Ġtand 344628
th 344564
ĠmilitÃ¤ra 344514
ay 344499
ĠSkÃ¤r 344386
Ġnaturlig 344155
Ġperfekta 344065
Ġwebb 344059
rummet 344020
TT 344007
Ġdeltagande 343894
Ġakut 343825
ĠlÃ¤rar 343817
ĠAss 343790
Ġdagligen 343679
Ġvinnare 343660
ĠÃ¶r 343658
ĠJon 343588
ĠlÃ¤nsstyrelsen 343452
iets 343423
Ġvaknade 343402
ĠLiv 343382
iat 343339
ĠkÃ¶ 343293
Ġorolig 343195
ĠuppnÃ¥ 343160
Ġfatta 342985
Ã¥rden 342954
ĠÃ¥tgÃ¤rd 342873
Ġrid 342868
Ġsyd 342864
sr 342861
ĠSÃ¶dertÃ¤lje 342702
sport 342572
Ġstation 342526
ĠPolen 342453
isera 342274
usen 342245
kraft 342208
Ġfysiska 342091
ĠtrÃ¤ningen 342084
Ġare 342066
hy 341938
ĠIstÃ¤llet 341787
Ġgas 341628
Ġvana 341572
Ġbetalning 341543
Ġunik 341525
ĠhjÃ¤lpte 341477
ĠvÃ¥ras 341473
ĠfÃ¶religger 341376
Ġdemokrati 341293
ĠLinda 341287
Ġledamot 341075
ĠFred 341052
usk 340971
ĠtÃ¤vla 340930
Ġgrej 340720
set 340630
Ġskrattar 340618
Ġuppenbart 340608
ĠÃ¶fver 340545
Ġinnebar 340482
ĠaffÃ¤ren 340440
ĠEng 340418
Ġno 340400
ĠomstÃ¤ndigheter 340302
Ġarm 340260
ĠBel 340234
Ġplanera 340161
ĠRolf 340121
Ġrosa 340051
Ġklarade 339994
Ġlagstiftning 339962
Ġskatter 339881
ĠAxel 339816
Ã¶rd 339761
ĠDahl 339703
ĠfortsÃ¤ttningen 339540
Ġturist 339439
Ġtagits 339398
Ġwith 339394
ĠOavsett 339343
Ġbeslutade 339309
Ġmail 339287
delar 339247
byggnad 339045
Ġjournalist 339020
Ġansvarar 338820
mÃ¤stare 338777
igen 338683
Ġlyx 338622
Ġfyllt 338465
Ġdetsamma 338448
ĠDET 338383
Ġ2002 338321
ĠPost 338300
Ġeftermiddagen 338220
Ġ62 338177
ĠÃĸstersund 338059
gÃ¥ende 338041
ĠpopulÃ¤r 337919
Ġoper 337781
ĠstÃ¤nga 337666
ĠÃ¶verenskommelse 337557
Ġarbetsplats 337503
Ã¤rer 337453
Ġordna 337292
backen 337286
Ġchefen 336997
Ġacceptera 336980
Ġarbetare 336965
ĠbesÃ¶ker 336773
Ã¤k 336771
ĠLjung 336647
Ġvanligaste 336629
ĠinsÃ¥g 336543
ash 336527
Ġmetall 336386
ĠfÃ¶reningar 336322
ĠGen 336263
ligaste 336238
Ġutmaning 336226
Ġ79 336097
industrin 336033
Ġtvingades 336020
Ġskjut 335950
ĠSA 335882
ĠMkr 335824
ĠEndast 335822
hÃ¶g 335765
Ġmeningen 335658
ĠlÃ¤ggs 335490
Ġram 335456
ĠfÃ¶rhoppningsvis 335400
ĠLin 335346
Ġchanser 335297
Ġverkstad 335219
ĠÃĦn 335163
ĠfÃ¶retagets 335160
port 335138
ĠjÃ¤mfÃ¶ra 335017
Ġelit 334987
ĠOfta 334966
Ġ2001 334886
Ġavslutade 334834
gel 334804
ĠskÃ¶ta 334777
ĠGun 334718
Ġfastigheter 334709
Ġseg 334644
ity 334628
ros 334559
Ġrollen 334540
Ġdras 334530
ĠumgÃ¥s 334529
ĠKim 334474
Ġgymnasiet 334427
vikt 334407
Ġsprida 334312
medel 334281
ald 334275
ĠÃ¥ngest 334275
Ġtrans 333983
ĠFyra 333970
ÃĸR 333944
Ġmiss 333912
ĠSyftet 333876
Ġim 333843
ÃĦR 333797
Ġko 333733
Ġminnen 333723
Ġgrovt 333719
rist 333703
Ġpolitikerna 333677
Ġmis 333661
IL 333460
Ġanfall 333353
ĠÃĦR 333353
AM 333312
Ġlycka 333269
ĠfÃ¶redrag 333142
ĠbestÃ¤lla 333094
Ġskjuta 333088
itz 333055
Ġbetalt 333043
old 333005
ĠRichard 333001
sÃ¥s 332955
ĠPol 332838
Ġpraktik 332685
spr 332662
ĠFre 332647
Ġarbetsmarknaden 332634
ĠvÃ¤xande 332604
Ġbro 332578
ums 332552
Ã¥rig 332539
ĠRos 332460
Ġhamna 332410
rÃ¤d 332365
sÃ¤ttningen 332258
fest 332191
hets 332064
ĠsuccÃ© 331925
ĠAb 331780
Ġeffekter 331673
Ġglass 331489
Ġuttalande 331414
ĠlÃ¤gg 331158
CK 331128
yp 331077
stal 330986
Ġvil 330910
ĠbÃ¥ten 330771
ĠaktÃ¶rer 330741
Ġins 330673
ologiska 330559
ĠifrÃ¥ga 330494
Ġproduktionen 330413
ĠdÃ¶rr 330219
Ġhat 330123
Ġinleddes 330054
resor 330036
ĠFru 330016
shuset 329982
Ġarbeten 329976
oma 329975
eld 329866
tiden 329843
ĠSE 329220
Ã¥nga 329213
ĠBank 329201
Ġfunnit 329167
ĠberÃ¤ttelse 329088
Ġtempo 329076
ĠSchweiz 329074
Ġsnitt 329069
Ġpark 328989
ĠÃ¥rsÃ¥ldern 328930
Ġkuperad 328715
system 328707
18 328696
ĠSÃ¤rskilt 328694
Ġgammalt 328597
Ġvinster 328503
ssa 328415
ĠÃħsa 328293
Ġutt 328278
omrÃ¥de 328232
ĠtjÃ¤nar 328200
Ġgolv 328163
ep 328083
sarbete 328001
ĠvÃ¤rldskriget 327957
ĠtjÃ¤nste 327915
ĠvÃ¤rdet 327890
Ġsjukdomar 327879
ote 327756
US 327731
ĠsÃ¶k 327722
priset 327215
mÃ¤nnen 327173
ive 327107
ĠSamtliga 327070
Ġskilda 327017
Ġdeltagarna 326963
ĠGar 326784
ĠVÃ¤ster 326776
ĠmÃ¶rka 326768
Ġ77 326673
Ġprocessen 326603
ĠkommittÃ©n 326591
ĠKron 326581
orr 326571
uter 326529
Ġler 326369
80 326166
lopp 326143
hallen 325955
Ġfinansiering 325937
ĠinfÃ¶ra 325910
Ġrektor 325851
ĠChristian 325791
ĠLilla 325761
ĠKat 325723
vakt 325717
Ġba 325692
ĠJohanna 325608
ĠHand 325584
Ġfond 325581
ĠhÃ¥llas 325581
Ġtyder 325572
Ġbandet 325565
ĠNorrland 325561
Ġklicka 325548
Ġinomhus 325516
ĠMamma 325240
Ġkorrekt 325191
ĠTv 325099
tro 325085
ivet 325040
fÃ¤lt 324956
Ġrika 324928
ĠstÃ¶dja 324830
Ġrese 324776
Ġskadade 324755
Ġinner 324716
Ġup 324690
Ġskyldig 324645
namn 324598
Ġbeskriva 324561
Ġbryr 324512
andes 324507
Ġbrett 324417
Ġkapitel 324365
Ġ180 324349
alet 324122
Ġsnyggt 323936
utveckling 323900
ĠtrÃ¤dgÃ¥rden 323875
Ġkust 323873
ĠÃħter 323858
ĠvÃ¤xter 323845
Ġenormt 323844
ĠTanken 323643
ĠgrÃ¶nsaker 323633
ĠProgram 323607
Ġdialog 323538
ĠSkellefteÃ¥ 323453
Ġleverans 323339
ĠingÃ¥ 323333
iven 323240
Ġ1950 323229
Ġbyggas 323190
Ġhvil 323189
ĠtvÃ¥ng 323075
ĠCom 323059
Ġyta 322998
lÃ¶st 322817
arbeten 322814
ĠanfÃ¶r 322761
ĠVisby 322718
ise 322692
Ġmake 322652
Ġplanerade 322597
UR 322455
ress 322433
Ġpriserna 322347
ĠslÃ¤ppte 322320
branschen 322272
Ġfredags 322269
Ġkuk 322122
Ġmg 322103
Ġsegrar 322092
Ġreligion 322016
omrÃ¥den 321974
Ġgt 321763
ĠansprÃ¥k 321754
Ġsynnerhet 321721
ĠvÃ¥ga 321626
Ġpersonuppgifter 321625
ĠkÃ¤ra 321598
ĠfÃ¥gel 321583
Ġmisshandel 321415
ĠkonstnÃ¤r 321384
ĠÃ¤g 321300
ĠlÃ¤tta 321252
Ġhuruvida 321248
ĠÃ¥terupp 321151
Ġpresenteras 321136
Ã¤d 321067
ĠStar 321045
ĠVin 320989
ĠAnvÃ¤nd 320983
Ġduktiga 320871
ĠÃ¤ldsta 320846
Ġdragit 320781
Ġyrke 320699
Ġutskott 320535
ĠJack 320442
15 320340
Ġautomatiskt 320287
allen 320174
fa 320129
Ġfattar 320042
strÃ¶ms 320012
una 319983
Ġnordost 319884
Ġmaskiner 319785
ĠdirektÃ¶r 319781
ĠtÃ¤tt 319724
ĠinnehÃ¥llet 319721
ĠHarry 319685
Ġutseende 319656
Ġpresentera 319569
ĠÃ¥sikt 319472
Ġstatsminister 319452
landet 319434
Ġlevde 319396
ĠrÃ¤knat 319361
handlingar 319314
lagt 319287
ĠfÃ¶rÃ¤ndra 319249
ĠFalun 319034
ĠlÃ¶s 318994
Ġvardagen 318849
Ġamp 318677
ilt 318595
Ġhall 318506
16 318479
ĠhÃ¤n 318477
ĠFin 318280
dera 318134
ĠYtterligare 318043
ĠUtÃ¶ver 317880
Ġgolf 317879
annen 317817
Ġas 317776
ĠDalarna 317657
ĠAg 317574
Ġdygnet 317522
ĠEskort 317451
ĠhÃ¤ndelsen 317345
Ġlikt 317342
Ġsomras 317262
Ġlovar 317192
Ġda 317181
Ġsc 317178
ĠvÃ¤nt 317152
Ġbefolkning 317115
ĠfÃ¶reslagna 317093
lÃ¶ 317082
ĠSta 316987
ĠMac 316958
ĠberÃ¶rda 316952
Ġheltid 316918
Ġsatsning 316817
Ġsover 316731
amm 316702
gud 316662
ĠSweden 316612
sminister 316605
ĠHanna 316422
Ġitalienska 316407
Ġemellan 316379
inne 316353
iff 316320
ĠuppehÃ¥ll 316113
hi 316095
jar 316086
rÃ¶r 316063
ĠvÃ¤ggen 315991
Ġide 315950
fallet 315797
ĠÃ¤tit 315787
Ġann 315729
vit 315724
ĠvÃ¤lfÃ¤rd 315677
isar 315603
ĠMÃ¥let 315381
oppen 315328
ĠsÃ¶t 315242
Ġpatient 315037
back 315021
ĠbesÃ¶kte 314857
Ġkun 314774
ĠOn 314691
ĠEG 314580
ĠfÃ¶retrÃ¤dare 314562
nats 314318
Ã©r 314303
AND 314087
UN 314087
ĠÃ¥kt 313936
Ġ\ 313932
Ġadvokat 313910
ĠrejÃ¤l 313901
Ġurval 313888
Ġreste 313887
Ġsjunga 313886
ĠsjÃ¤lvstÃ¤ndigt 313794
Ã¤nder 313783
ĠvÃ¤rden 313779
ĠvÃ¤rdering 313683
Ġtorg 313639
ĠbegrÃ¤nsad 313632
Ġot 313623
ze 313609
ĠGuds 313562
erings 313558
ĠVÃ¤r 313541
ĠÃ¶vertygad 313482
ela 313433
Ġmerit 313333
ĠGrÃ¶n 313204
Ã¤nnen 313175
ĠSkÃ¶vde 313173
ĠBirgitta 313169
ĠMag 313140
Ġuppgifterna 313073
ĠAustralien 313023
Ġdyr 312960
frÃ¥ga 312828
Ġleka 312739
flyg 312709
ĠJul 312509
Ġrapporterar 312503
ĠfÃ¶rm 312487
ben 312466
rav 312377
Ġkass 312250
ĠAnsÃ¶kan 312209
ĠNiklas 312035
ĠhÃ¶stas 312008
ellt 311741
ĠHelsingfors 311670
Ġinledde 311580
ĠarbetslÃ¶shet 311473
Ġskolans 311067
ux 310988
ĠunderklÃ¤der 310942
Ġtiteln 310865
Ġytan 310806
ĠskÃ¤mt 310684
Ġugnen 310669
rop 310646
way 310645
Ġkursen 310606
Ã¤nn 310597
ĠEuropas 310505
ĠnyÃ¥r 310491
ĠMoskva 310466
sled 310373
ĠdÃ¤ck 310308
organisation 310158
ĠlÃ¤rde 310150
RE 310140
Ġvideos 310104
ĠIndien 310074
ĠlÃ¥ngsamt 310053
Ġkatastrof 309980
ĠstrÃ¤cker 309970
ĠHammar 309904
Ġtysk 309840
Ġpersonligt 309835
ĠPalm 309815
ekt 309799
ĠsnÃ¤ll 309736
rades 309731
Ã¤gg 309730
ĠPe 309723
Ġbegrepp 309631
gl 309627
ĠFÃ¤r 309487
ĠfÃ¶rutsÃ¤ttningarna 309384
ĠSolna 309377
Ġbesk 309287
Ġbefintliga 309263
bom 309235
Ġtalas 309223
ĠstÃ¶rst 308930
Ġbetraktas 308885
digt 308814
ĠStrand 308772
Ġdigital 308675
Ġhemmaplan 308636
ĠberÃ¤ttat 308515
ĠfÃ¶rdes 308496
styr 308419
Ġdusch 308409
Ġarbetskraft 308383
ĠHammarby 308237
boken 308166
Ġminuten 308130
Ġ1999 308063
ĠsÃ¶rj 308011
ĠJenny 307988
Ġsymbol 307985
Ġtyg 307975
ĠKD 307971
ĠGÃ¶sta 307892
Ġpoliser 307837
alis 307814
Ġtillkommer 307811
ĠfÃ¶reslÃ¥s 307779
Ġkonflikt 307634
Ġflyktingar 307437
ĠnÃ¤ring 307376
ĠsjukvÃ¥rden 307310
ĠBur 307307
Ġomgivningarna 307214
sken 307160
Ġkraven 306958
ĠHansson 306898
fulla 306883
Ġ88 306846
ĠsÃ¤lj 306820
ada 306771
ĠDagen 306755
ĠFÃ¶retaget 306656
Ġlandslaget 306653
ĠIran 306648
Ġuppgiften 306615
Ġmogna 306580
ĠlÃ¶ner 306559
Ġplanerat 306556
Ġindivid 306339
Ġgentemot 306286
Ġstruktur 306021
Ã¥ngen 305954
Ġ1998 305861
ĠkrÃ¤va 305839
Ġrabatt 305796
zz 305711
ĠÃ¤ndras 305678
sskolan 305641
Ġid 305550
punkten 305543
Ġarv 305533
fonden 305491
unk 305431
Ġflyttat 305368
Ġskickade 305276
vÃ¤rdet 305180
ĠbestÃ¥ende 305154
Ġanpassa 304973
ugg 304911
Ġpeppar 304863
ĠlÃ¤ngtar 304806
ĠHed 304721
Ġartikeln 304674
Ġvikten 304623
ĠfÃ¶retagare 304589
ĠmÃ¤rks 304480
Ġidentitet 304421
amp 304420
Ġsugen 304391
spro 304369
ĠhÃ¤kt 304289
ĠlÃ¶pande 304222
ĠBre 304187
mi 304041
Ġmysigt 303923
Ġbitar 303838
Ġ1994 303773
ĠModeraterna 303762
24 303658
ĠGer 303473
Ġkraftig 303455
Ġsynnerligen 303425
jor 303338
ĠKnulla 303333
Ġtappade 303276
ĠEricsson 303152
Ġlandsbygden 303141
ĠnÃ¶dvÃ¤ndiga 303089
ĠglÃ¶mt 303070
Ġbudskap 302934
ĠToppen 302902
Ġiallafall 302822
Ã¶rerna 302777
Ġdec 302751
Ã¤nda 302609
Ġsprit 302563
Ġlita 302513
Ġstr 302284
Ġpratat 302270
Ġsamarbetet 302231
ĠAnnika 302216
Ġsocialt 301987
ĠKommunen 301953
splatsen 301945
ĠanvÃ¤ndare 301901
ĠdÃ¤rpÃ¥ 301872
ĠfÃ¶rhandlingar 301791
ĠTy 301561
ĠElin 301542
ĠSvart 301448
ĠmÃ¤rkt 301447
ĠmÃ¤rker 301375
Ġantagligen 301317
ĠrÃ¥n 301216
eck 301130
Ġ83 301128
Ġgul 301092
Ġkonferens 301080
ĠÃ¤gde 300890
ette 300867
Ġlocka 300827
Ġfulla 300766
ĠlÃ¤ggas 300716
igg 300706
part 300672
Ġgud 300592
Ġregistrering 300577
ĠSjÃ¤lvklart 300560
uten 300492
ĠmotstÃ¥ndare 300468
Ġti 300460
Ġtillsyn 300402
Ġaktuellt 300365
Ġspringer 300354
ĠundersÃ¶kningar 300334
Ġkollegor 300206
Ġdyrt 300171
bord 300091
Ġartister 300013
rog 299992
Ġuppdraget 299988
iserade 299981
Ġkopp 299981
ĠbÃ¶lj 299979
yra 299902
Ġenskild 299880
Ġgrejer 299879
Ġpre 299855
Ġos 299804
ĠfÃ¶rhindra 299694
ĠKommun 299657
Ġbana 299499
ĠFÃ¶lj 299493
satta 299487
jt 299461
Ġtex 299397
Ġpunkter 299350
ĠDam 299335
Ġdottern 299266
Ã¡ 299255
ĠKort 299246
Ġgranskning 299169
Ġavses 299048
ele 299038
Ġtorr 298993
atten 298842
Ġpo 298839
uppgifter 298833
holmen 298792
Ġenheter 298714
Ġtema 298713
eh 298694
Ġkvart 298686
Ġhe 298657
Ġmotiv 298612
ĠnÃ¤ringslivet 298611
Ġinbrott 298529
ĠGÃ¥r 298432
ĠSexiga 298419
Ġset 298306
lem 298301
ĠBok 298245
stÃ¤llningar 298191
ĠutgÃ¥ngspunkt 298171
Ġbilda 298142
ĠmÃ¥lvakt 298138
station 298114
Ġfalla 298114
ĠbrÃ¶t 298087
ĠanmÃ¤la 298043
Ġbolagets 298000
Ġvanligtvis 297973
ĠkÃ¤nnas 297955
Ġbekymmer 297793
Ġvall 297753
Ġkonsument 297711
ĠÃĦnnu 297678
Ġhej 297673
Ġljuset 297643
Ġdebut 297637
Ġgenerellt 297632
Ġandras 297562
ĠgÃ¤sterna 297560
fria 297488
Ġ84 297463
Ġbomb 297422
ice 297406
ĠIK 297301
ĠMora 297241
ĠIm 297198
Ġsnarast 297142
ĠMÃ¥ste 297126
ĠmÃ¶bler 297093
Ġsinglar 297016
ĠidÃ©n 296994
ĠÃ¥ldern 296961
Ġver 296854
ĠkÃ¤mpar 296795
21 296733
vÃ¤rda 296670
FF 296666
ĠBild 296664
ĠFlyg 296531
Ġstill 296525
Ġupplevelser 296482
Ġgodis 296366
ĠlÃ¥ten 296309
ĠFort 296242
ĠHelena 296219
ĠfÃ¶rskolan 296200
Ġgn 296188
Ġreaktion 296168
ĠprÃ¤st 296049
Ġrund 295987
Ġmaka 295943
ĠHitta 295905
ĠRoger 295895
Ġsydost 295744
ĠðŁĺ 295688
Ġinredning 295644
ĠpÃ¥pekar 295559
splanen 295554
Ġopposition 295477
skvÃ¤llen 295394
ĠGl 295392
por 295376
eman 295336
Ġsteget 295296
klubben 295265
ĠAmerika 295211
rÃ¤de 295172
Ġvarierar 295164
ĠmÃ¶ts 294992
Ġgjord 294956
Ġpraktisk 294934
Ġargument 294913
ĠLed 294911
Ġfokusera 294908
ĠmalmÃ¶ 294897
omm 294797
Ġfoto 294772
Ġinkomster 294765
vor 294565
ĠvÃ¤rmen 294530
ĠFler 294406
Ġkunden 294342
Ġimport 294248
Ġgener 294107
Ġsal 293985
ĠbedÃ¶ma 293973
Ġcookies 293935
ĠCup 293913
Ġ1500 293882
ogs 293871
Ġasyl 293839
Ġbefann 293771
Ġhoppade 293759
ĠpÃ¥minner 293752
Ġtvekan 293707
Ġmobilen 293551
ĠInformation 293353
Ġspelades 293287
Ġnarkotika 293275
Ġledsen 293250
marknaden 293157
ĠSkol 293141
ĠAnledningen 293050
ocken 293035
Ġrisker 292931
stÃ¤llningen 292929
Ġris 292906
ĠhÃ¶rn 292891
Ġveckorna 292675
Ġkors 292666
ĠLÃ¤nsstyrelsen 292650
amen 292649
igaste 292644
Ġflickan 292612
ĠfÃ¶rste 292516
mann 292482
ĠursÃ¤kt 292314
Ġpolisens 292311
ĠDirekt 292304
ĠBi 292267
Ġdiverse 292192
ty 292103
ulle 292087
hjÃ¤lp 292016
Ġinkl 291872
ĠBack 291847
90 291775
Ġrapporten 291698
ĠrÃ¤nte 291678
ĠlÃ¤kar 291672
Ġutsatt 291570
ĠSo 291557
ĠkÃ¤rleken 291528
ĠskrÃ¤ck 291390
Ġbehandlingen 291336
tera 291287
Ġsch 291250
maskin 291223
ĠutstÃ¤llningen 291098
Ġ96 291083
Ġmuseet 291026
Ġattack 290976
Ġisen 290970
Ġinst 290952
Ġskade 290949
handel 290911
ĠÃ¶de 290865
Ġbarnens 290804
sspel 290745
Ġsanningen 290683
ĠsÃ¤ 290673
ĠMil 290604
Ġsakta 290579
ĠPre 290493
Ġalltmer 290454
Ġrimligt 290420
ĠKerstin 290319
Ġfi 290285
ĠdÃ¶ma 290215
Ġtillt 290198
Ġpojke 290159
Ġdubbelt 290042
ĠfÃ¶rvÃ¤g 290038
ĠhÃ¥rdare 290020
Ġsamarbeta 289970
Ġsamlat 289968
Ġflykt 289966
kÃ¶p 289951
ĠÃĸvriga 289816
cher 289779
ild 289757
Ġparkering 289680
ĠPRO 289611
Ġne 289605
listan 289582
ĠdÃ¶den 289577
ĠTurkiet 289557
Ġutskottet 289542
sÃ¤tt 289516
ĠvÃ¤rderingar 289515
ativa 289504
ĠMel 289477
ativ 289462
grund 289431
Ġbanken 289397
Ġdrivs 289392
ĠtillÃ¤mpas 289258
Ġgrepp 289058
Ġlediga 289052
ĠRosen 289037
Ġmunnen 288941
ĠDjur 288936
musik 288875
Ġnormala 288874
Ġkasta 288816
Ġandas 288809
Ġombud 288764
Ġrunda 288728
Ġsan 288678
ĠsÃ¤nka 288662
Ġsexuella 288651
ĠfÃ¤st 288616
ĠtrÃ¤ff 288570
Ġter 288557
Ġnation 288544
Ġblick 288478
ĠsamhÃ¤lls 288389
Ġspa 288296
ĠHD 288262
Ġlokalt 288163
Ġpat 288134
Ġalbum 288104
unn 288099
fÃ¶rande 287942
Ġsmart 287935
ĠfÃ¶rhÃ¥llandet 287820
Ġbyggdes 287814
ĠSim 287803
Ġmeddelar 287775
Ã¤mt 287757
Ġhttps 287737
Ġanledningen 287712
ligheter 287686
ĠSyrien 287631
ĠLager 287567
talet 287518
Ġbyggs 287471
shem 287328
Ġhuden 287288
Ġstatus 287239
ĠIsland 287170
ĠKÃ¶r 287164
stam 287142
obb 287108
bad 287060
ĠanlÃ¤ggning 287012
ĠtjÃ¤nstemÃ¤n 287011
Ġmedlemmarna 286884
Ġoklart 286844
Ġutbildnings 286775
Ġlyfter 286765
delen 286752
Ġstads 286727
ĠlÃ¶st 286687
jÃ¤nst 286656
ĠSocial 286654
slÃ¶s 286626
Ġbox 286603
Ġbesviken 286587
Ġmormor 286438
ĠsÃ¶ndags 286434
Ġsignal 286264
Ġstol 286170
ĠSommar 286027
ĠBarnen 285825
ĠrÃ¤cka 285790
ĠprÃ¶va 285620
Ġexpert 285607
Ġleende 285594
Ġtrav 285499
lÃ¤ge 285444
Ġlott 285429
Ġbilliga 285390
satt 285308
Ġspanska 285301
ĠskÃ¥despelare 285273
kur 285208
Ġlo 285200
Ġenorma 285088
stat 285072
ĠmÃ¤rkligt 285060
PP 285059
sledare 285012
oten 284945
Ġorsak 284861
Ã¶ts 284752
Ġher 284740
ĠBjÃ¶r 284727
ĠVÃ¤rmland 284717
Ġpatienten 284710
Ġtidig 284678
ĠnÃ¤rhet 284540
Ġpresenterade 284523
ĠrÃ¶tt 284500
kall 284474
ĠÃ¤gna 284437
Ġvetenskap 284428
Ġmogen 284417
Ġfortsatta 284411
ĠBrand 284396
Ġregelbundet 284387
Ġstrategi 284374
yta 284273
ĠfÃ¶rsvara 284268
ĠKal 284223
Ġchat 284193
Ġofficiella 284150
ĠmedfÃ¶ra 283985
Ġsekund 283789
ots 283668
Ġdelade 283650
Ġkonsult 283646
Ġbeskrivs 283496
ĠDem 283477
ĠIng 283373
ĠfÃ¶rvÃ¤ntningar 283188
Ġkampanj 283162
Ġuppgick 283114
ĠfÃ¥ng 283046
Ġberedskap 282998
Ġlider 282943
rick 282938
ĠfÃ¶rhandling 282929
punkt 282877
ĠRÃ¶da 282862
ĠfÃ¶rsiktigt 282855
ĠMÃ¥n 282765
ĠÃ¥rligen 282743
rot 282676
ĠÃ¥tskilliga 282628
Ġlastbil 282613
ĠfÃ¶rsvaret 282566
Ġtull 282542
get 282393
Ġfas 282338
ĠsÃ¤ljs 282328
ĠmÃ¥len 282283
Ġlig 282198
ĠersÃ¤tta 282150
Ġramen 282018
Ġkunderna 281947
Ġmask 281896
naden 281754
Ġ82 281730
ĠTar 281699
ĠkÃ¶rkort 281680
Ġifall 281616
Ġporrfilm 281515
ĠkÃ¤mpa 281514
Ġlandskap 281482
ĠNÃ¤ 281460
skol 281459
ingens 281406
ĠAhl 281339
Ġ86 281220
ĠnÃ¶dvÃ¤ndig 281140
ĠGuld 281121
Ġvarenda 281056
ump 281019
Ġhyr 280966
Ġslutat 280885
Ġutvecklar 280875
ĠFoto 280852
ĠRen 280784
uc 280776
bildning 280769
ĠanvÃ¤ndes 280735
ĠWilliam 280722
ova 280715
TER 280678
hÃ¶ll 280594
Ġorter 280477
Ġog 280406
Ġserveras 280399
Ġga 280341
Ġgar 280332
Q 280277
ĠfÃ¶rrÃ¤tt 280169
ĠKristianstad 280116
syn 280029
lor 279955
ĠOcksÃ¥ 279912
ĠIngrid 279905
ĠHol 279822
Ġfirar 279804
savgift 279562
Ġtitt 279549
ĠII 279465
ningsk 279431
lass 279361
Ġkvadratmeter 279330
lats 279306
Ġbakgrunden 279302
ĠdÃ¶mdes 279194
Ġdelarna 279183
ingenjÃ¶r 279105
Ġsken 279052
Ġ1995 278938
Ġuppenbarligen 278869
ĠfÃ¶rvÃ¥nad 278859
Ġutav 278731
Ġglesbefolkat 278729
ĠfÃ¶rvÃ¤ntas 278532
ĠunderlÃ¤tta 278442
Ġledaren 278396
Ġtjugo 278351
Ġ1997 278270
iella 278264
AB 278238
Ġallvarlig 278149
Ġ89 278116
Ġdagliga 278063
ĠfÃ¶rekomma 277984
yll 277896
Ġskr 277864
Ġerbjuds 277739
ĠIr 277623
Ġdiplom 277572
ĠlÃ¶ 277534
Ġavdelningen 277516
ĠFÃ¶retag 277490
Ġskam 277416
ĠstÃ¤llas 277356
ĠÃħh 277340
ĠÃ¥rliga 277317
mas 277188
rika 277180
ĠGT 277167
Ġbehandla 277145
ĠMari 277138
Ġutvecklats 277135
Ġeventuell 277130
Ġexperter 277076
Ġunge 277030
ĠBlom 277025
Ã¤garen 276967
ĠAdam 276910
Ġ98 276803
Ġinse 276800
Ġkinesiska 276784
ĠvÃ¤ntan 276702
che 276693
Ġcon 276415
ĠLjus 276353
Ġenstaka 276349
ĠnÃ¤mnden 276209
ĠfÃ¶rsÃ¤ljningen 276096
TE 276093
Ġ1992 276078
Ġtruppen 275995
dens 275962
Ġknapp 275888
Ġsocialdemokratiska 275680
Ġinb 275587
wa 275569
ĠbeslÃ¶t 275548
rÃ¤ck 275365
ĠVI 275338
Ġresultaten 275309
ĠfÃ¶rlorar 275279
ĠVisa 275205
endet 275168
schefen 275162
ĠgrÃ¤s 274970
ĠsmÃ¥tt 274893
ĠCor 274846
Ġlockar 274842
Ġ71 274818
ĠhÃ¶ 274790
Ġtemperatur 274756
ĠAugust 274696
ĠPlan 274695
ĠFR 274641
ĠJames 274641
ĠNatur 274588
Ġcell 274572
ĠGre 274543
Ġblandning 274519
Ġcentralt 274485
Ġkriminal 274460
ĠÃ¥rsskiftet 274391
Ġkostnaden 274292
ĠKor 274228
ĠFisk 274160
bit 274055
ski 273981
ĠBol 273881
Ġmodellen 273806
Ġminskade 273762
Ġavst 273723
ĠdÃ¶k 273715
fÃ¶rbund 273669
inner 273655
Ġpresenterar 273584
Ġtrycka 273531
Ġret 273503
ĠProblemet 273488
ĠAV 273473
inte 273411
lades 273375
etta 273371
Ġskapas 273365
ĠMest 273293
Ġleverera 273282
ĠUlla 273192
ĠBjÃ¶rk 273187
Ġfotograf 273038
ĠosÃ¤ker 273027
ĠnÃ¤ringsliv 273005
Ġparet 272986
Ġsamlar 272979
agn 272902
ĠCentral 272835
Ġinformationen 272835
ĠÃ¥stadkomma 272835
nades 272791
ith 272734
ĠlÃ¶p 272727
ĠfÃ¤ll 272694
Ġrev 272498
ĠfÃ¶rlag 272408
Ġinvandrare 272405
Ġjournalister 272312
Ġtappat 272198
Ġbiljett 272159
Ġmuseum 272146
Ġenorm 272119
Ġrot 272052
Ġskivor 272002
ĠGrekland 271992
ĠIP 271968
Ġresp 271816
ĠBolaget 271804
Ġindex 271789
mare 271691
formen 271619
enden 271612
Ġhamnat 271510
UM 271490
prov 271446
ĠfÃ¶rvaltning 271355
alitet 271346
hÃ¶r 271339
Ġmoln 271179
ĠsÃ¤kerhets 271168
over 271161
ĠBengtsson 271112
ĠpensionÃ¤r 270993
olk 270968
ĠberÃ¤ttelser 270954
Ġkollade 270787
ĠHudiksvall 270755
Ġdrabbats 270737
bal 270680
Ġgivit 270605
Ġhastighet 270485
13 270332
bana 270290
17 270268
ĠJohannes 270237
Ġstift 270205
Ġdyrare 270139
fritt 270067
stÃ¤lld 270007
ĠomsÃ¤ttning 269998
OLL 269964
snivÃ¥ 269938
Ġgreps 269902
ĠTwitter 269840
ungen 269792
ĠOnline 269700
ĠklÃ¤d 269687
ĠfÃ¶rbud 269626
ĠfjÃ¤ll 269596
rig 269521
Ġdo 269520
delse 269456
Ġth 269440
nader 269433
ĠHaha 269373
ĠFÃ¶reningen 269331
ĠframhÃ¥ller 269320
Ġjazz 269290
ĠsÃ¤gas 269235
Ġspr 269234
mel 269217
ĠGra 269194
ĠvÃ¥g 269110
Ġblad 269042
omb 269017
fil 268905
Ġmeddelande 268878
Ġefterhand 268837
ands 268812
filmer 268803
ĠvÃ¤sentligt 268774
Ġhalsen 268687
Ġvuxit 268558
IV 268551
ĠsÃ¥lde 268463
25 268459
ĠBlanda 268436
Ġnegativt 268430
Ġfysiskt 268363
Ġuttrycka 268301
ĠUnited 268288
ĠKul 268145
ĠGoogle 268128
Ġ87 268095
ĠmÃ¤rke 268041
hamn 267996
Ġ1991 267943
ĠBlekinge 267914
Ġindustrin 267839
ĠBoken 267838
Ġly 267784
Ġlycklig 267729
ĠhÃ¤mtade 267627
Ġevenemang 267541
ĠSÃ¶n 267498
Ġdomstolen 267419
Ġmajoriteten 267374
Ġmidsommar 267350
Ġbehandlar 267304
ĠKÃ¤nns 267294
Ġgemenskap 267237
ĠSenast 267231
Ġgjorda 267142
ĠknÃ¤ 267136
ĠFÃ¥ 267112
Ġexemplar 267033
ĠINTE 267019
ĠfÃ¶rstÃ¥tt 266998
bilden 266986
Ġposten 266984
Ġuttag 266954
Ġkamera 266889
ĠÃ¤rende 266865
uff 266837
ĠdÃ¤rtill 266833
ĠLos 266824
Ġflertalet 266787
ĠHal 266739
ĠNÃ¤stan 266707
Ġpressmeddelande 266681
zon 266615
yss 266613
ĠIngvar 266496
Ġsi 266470
Ġverkligt 266405
cer 266397
ongen 266397
Ġbedriva 266377
ĠhÃ¤ng 266354
ĠmisstÃ¤nkta 266316
Ġkallat 266301
Ġklassisk 266289
Ã¶tt 266228
Ġtidiga 266206
Ġgram 266126
ĠâĢ¢ 266116
ĠskÃ¶na 266111
isa 266032
olen 265987
Ġtrott 265912
ĠdÃ¤rvid 265831
urs 265823
Ġsu 265782
Ġ1996 265762
ĠDina 265683
Ġgalopp 265661
Ġobjekt 265600
ĠgrÃ¶nt 265593
ĠAnne 265510
Ġroligare 265443
Ġkameran 265403
ĠfÃ¶rskola 265394
gÃ¥r 265370
kning 265121
Ġuts 265085
Ġfungerande 264901
nÃ¤s 264896
Ġgeneration 264854
ĠerkÃ¤nna 264747
Ġdensamma 264691
ipp 264618
ĠnivÃ¥er 264608
Ġlevnad 264593
Ġensamma 264591
ĠtillfÃ¤lligt 264567
sfÃ¶retag 264550
unna 264334
dels 264286
Ġvaccin 264244
ĠgrÃ¤n 264216
marna 264199
ĠForm 264166
ĠKlicka 264163
ĠRobin 264098
sex 264052
ach 263927
Ġdiv 263901
lev 263872
Ġandre 263862
Ġmon 263860
ĠLindberg 263850
ĠingenjÃ¶r 263844
Ġmorse 263838
Ġshow 263819
Ġdansk 263799
Ġ1993 263743
Ġbreda 263616
Ġinv 263577
rem 263572
dern 263541
Ġtube 263490
Ġkoppla 263160
Ġbeskedet 263122
Ġriktlinjer 263108
ĠVa 263099
ĠlÃ¶ser 263099
Ġdiskussioner 263088
pension 263006
iser 262931
ior 262907
Ġdriv 262898
ĠIN 262887
produkter 262869
Ġrapporter 262812
ĠmÃ¶jlig 262808
uck 262747
Ġstallet 262729
skrivning 262530
bin 262516
skador 262405
Ġ1989 262375
ĠvÃ¤nd 262343
Ġgravid 262298
ĠLi 262243
Ġreal 262112
anser 262104
ĠKlockan 262103
Ġerbjudande 262068
Ġstartat 261829
ĠOslo 261808
ĠinnehÃ¥lla 261757
Ġ61 261755
Ġbryter 261755
ĠAfrika 261706
Ġtum 261676
Ã¤nde 261608
Ġrepresentant 261462
smorgonen 261401
ĠvÃ¤ljare 261369
ENS 261368
ĠdrÃ¶mmar 261303
use 261277
ĠhjÃ¤rnan 261275
Ġfiske 261239
ĠArbets 261163
serie 261074
ĠskadestÃ¥nd 260956
ĠmÃ¥la 260953
Ġrader 260952
ĠfÃ¤rdigt 260945
Ġfattiga 260854
Ġavsked 260714
Ġjan 260582
Ġtekniken 260544
Ġrutin 260531
sbo 260507
ĠClaes 260420
ĠBlÃ¥ 260336
ane 260251
ĠberÃ¶m 260247
Ġbered 260204
ĠrÃ¤dsla 260204
jur 260150
14 260101
ĠgenomfÃ¶ras 260101
Ġsammanhanget 260079
ĠmÃ¥naderna 260005
Ġlock 259979
ĠFrank 259949
Ġlivs 259909
ĠGrund 259892
ĠSenare 259800
Ġsvenskarna 259770
spar 259732
Ġblanda 259671
ĠdÃ¶tt 259671
ĠfÃ¶rutsÃ¤tter 259665
ĠtÃ¤t 259590
ĠIrak 259559
Ġtvivel 259520
Ġdan 259516
Ġintern 259487
Ġinl 259478
ĠMÃ¶r 259461
rÃ¤ff 259335
ĠbistÃ¥nd 259049
Ġbildades 258926
ĠprÃ¶vning 258873
ĠMatt 258857
ĠhÃ¥llbar 258823
ĠAftonbladet 258794
ĠrÃ¤ckte 258791
somrÃ¥den 258732
ĠPÃ¤r 258715
ĠsamhÃ¤llets 258707
karna 258668
iseras 258660
Ġhvar 258620
ĠViktor 258559
rott 258489
ĠtÃ¤mligen 258470
ĠhumÃ¶r 258427
Ġutdelning 258390
Ġ1985 258328
Ġkont 258239
Ġtitel 258206
ĠlÃ¤ 258204
smed 258174
Ġert 258060
ĠleverantÃ¶rer 258048
ĠnÃ¥dde 257931
Ġorsaken 257889
ĠvÃ¤nskap 257889
ĠlÃ¥tit 257880
ĠStyrelsen 257802
ĠInter 257794
Ġkontant 257780
Ġdubbla 257740
ĠKent 257673
ĠÃ¤ng 257666
Ġolyckan 257637
Ġblom 257613
Ġgro 257569
stads 257553
iro 257493
ĠÃ¥k 257477
kter 257445
ĠHÃ¥ll 257433
Ġmoms 257425
berget 257420
Ġsortiment 257418
ĠDr 257387
ĠDitt 257317
Ġbur 257294
jut 257125
ĠJoakim 257114
Ġhindra 257062
elin 257057
Ġkanal 256956
spelet 256935
Ġmet 256899
ĠbakÃ¥t 256810
ĠÃĸppet 256793
ĠBlev 256781
ĠBostad 256770
ĠfÃ¶nstret 256761
Ġbiljetter 256760
Ġbyter 256683
ften 256580
ĠihjÃ¤l 256559
Ġutgifter 256504
jÃ¶n 256500
Ġdl 256491
ĠHotel 256488
ĠSu 256365
stÃ¤llda 256297
Ġherrar 256297
ĠSverigedemokraterna 256264
ĠlÃ¶sningen 256219
fin 256168
ĠKÅ«h 256157
ĠupptÃ¤ckt 256011
ssystemet 255892
Ġdrabbade 255860
ĠsmÃ¤rta 255830
tryck 255740
Ġdemonstr 255636
ordning 255582
Ġklubbar 255579
Ġ1988 255552
ĠLÃ¤r 255512
Ġavsluta 255499
Ġmatt 255492
ĠSig 255489
ics 255441
ĠGeorge 255437
Ġgaranti 255401
ĠAt 255349
ĠmÃ¤t 255337
hult 255327
Ġdemokratiska 255235
fÃ¤ltet 255225
ĠtillÃ¥ter 255199
ledning 255055
iell 255050
Ġbyggnaden 254962
savtal 254929
Ġhyre 254843
Ġblivande 254835
Ġavdrag 254820
Ġtacksam 254752
klar 254719
Ġbeskrivning 254693
Ġannons 254691
ĠanvÃ¤nts 254588
Ġavlopp 254549
Ġandelen 254490
ĠVideo 254469
uta 254363
ssp 254191
Ġfungerade 254129
ĠpÃ¥stÃ¥r 254001
Ġveckans 253955
ĠbegÃ¤ra 253951
ĠBilder 253941
Ġtunn 253734
hÃ¤r 253706
ĠSÃ¤tt 253705
Ġhantverk 253509
ĠÃ¶vre 253375
Ġdatorer 253363
ble 253348
rÃ¤n 253343
Ġbrukade 253326
ĠLotta 253319
Ġolyck 253316
Ġallsvenskan 253289
ĠFilmen 253075
Ġbillig 252828
que 252778
Ġ94 252766
ĠfÃ¤rdiga 252667
ĠKristina 252542
ĠAnt 252505
cker 252434
Ġgivet 252418
Ġtuffa 252381
Ġgay 252317
Ġkollega 252306
ĠlÃ¤nk 252258
sor 252236
ĠbegÃ¤ran 252209
Ġfriska 252144
ĠTra 252113
Ġ1700 252094
ĠfruktansvÃ¤rt 252069
Ġbaserad 252063
gÃ¥ngar 252050
ktioner 251968
visning 251949
Ġmeddela 251882
ĠunderhÃ¥llning 251804
ĠfÃ¤rsk 251799
Ġuppskattar 251656
ĠmÃ¥naders 251637
Ġstam 251594
Ġtroll 251562
Ã¤pp 251539
Ã¶te 251502
oh 251479
Ġavse 251460
Ġinblandade 251424
tur 251281
Ġop 251280
stem 251263
ĠBrasilien 251246
Ġungdomarna 251236
Ġfysisk 251231
ĠsÃ¥dÃ¤r 251228
ĠNakna 251188
Ġgym 251170
ĠfÃ¶rfatt 251141
ĠNHL 251128
Ġavfall 251105
Ġoriginal 251093
aner 251034
ĠDon 251017
Ġange 251005
TA 250929
Ġrutiner 250911
ystemet 250875
wall 250798
Ġminister 250715
stol 250710
fÃ¶retaget 250628
hopp 250609
ckade 250555
ĠSL 250529
ĠfÃ¤r 250507
iellt 250476
Ġsocialdemokrat 250396
ĠsprÃ¤ng 250340
jo 250338
bÃ¥t 250297
ĠKyrk 250279
Ġtennis 250248
ĠtÃ¤cka 250239
ĠÃ¶nskan 250208
ĠhÃ¤ngde 250194
ĠtÃ¤vlar 250174
ryck 249978
osa 249948
rip 249882
rom 249871
Ġskrift 249844
Ġfarliga 249824
ĠVatten 249807
ĠImorgon 249708
ĠlÃ¤gsta 249707
Ġeffektiva 249625
trafik 249585
Ġtrea 249572
ĠtillfÃ¶r 249551
ĠdÃ¥varande 249398
anterna 249375
spolitiken 249361
Ġsekreterare 249360
Ġminnas 249351
programmet 249212
svÃ¥rd 249194
ĠundersÃ¶kningen 249188
ĠSTOCKHOLM 249174
Ġalt 249145
Ġ1975 249139
ĠRock 249045
so 249035
Ã¤lla 248999
Ġkvartalet 248977
ĠOrd 248961
industri 248916
stund 248673
Ġ140 248562
Ġskoj 248545
ges 248505
ĠfÃ¶rre 248475
ĠÃ¤gt 248412
Ġvaluta 248334
Ġskiva 248307
ĠKall 248281
djur 248222
Ġstick 248205
ĠnÃ¤mna 248111
oppet 248076
Ġmanliga 248022
ĠFolkets 247989
22 247963
projekt 247928
Ġtjock 247891
ĠBal 247819
teknik 247810
Ġungdoms 247642
ĠðŁĻĤ 247571
ĠvÃ¥ldtÃ¤kt 247561
Ġbron 247521
ĠlÃ¤mpliga 247514
Ġkonstaterade 247509
ĠpÃ¥verkan 247479
ĠLindgren 247476
Ġtimmars 247461
vÃ¥ 247380
Ġdat 247345
liv 247321
Ġbyggde 247212
au 247182
nivÃ¥ 247148
Ġod 247118
ĠKontakta 247021
ks 246939
ĠvÃ¤lj 246907
ĠKÃ¤nner 246874
KT 246869
ĠUtredningen 246855
ĠhalvÃ¥r 246812
ĠÃĸsterrike 246651
Ġtrygga 246642
ĠLika 246562
Ġport 246505
ĠÃ¶vergÃ¥ng 246500
ĠSista 246493
Ġmaterialet 246461
Ġsumma 246459
itionen 246430
Ġsocken 246387
Ġundervisningen 246262
Ġnakna 246244
ĠfÃ¶rde 246205
risk 246191
ĠKalle 246129
ĠstjÃ¤rn 246091
ĠAir 246087
pol 246010
Ġpressen 245998
Ġ1986 245901
Ġregionala 245862
ĠnÃ¤rmar 245846
politiken 245834
Ġminus 245822
Ġimponerande 245791
Ġbero 245741
Ġcentimeter 245737
ĠBergman 245723
sid 245722
star 245684
Ġdyra 245677
IG 245673
ĠJÃ¶nsson 245631
ĠpopulÃ¤rt 245618
ĠutgÃ¶ra 245567
skam 245552
Ġmedverka 245537
Ġbredd 245490
orter 245446
ĠinlÃ¤gget 245319
ĠLÃ¶n 245301
ac 245300
Ġbus 245238
ĠomgÃ¥ng 245146
Ġblandad 245119
Ġkammar 245077
Ġavsikt 244984
Ġdricker 244961
Ġarter 244910
Ġantar 244876
ĠhÃ¶rs 244863
ĠBilen 244824
Ġskytt 244824
Ġmissade 244780
OS 244760
Ġ110 244758
ĠstÃ¤mning 244699
Ġkal 244683
rÃ¶relsen 244584
Ã©ns 244575
Ġmanga 244553
Ġexamen 244550
ile 244519
Ã¤rk 244451
Ġyour 244421
ĠKong 244340
Ġbacken 244280
Ġskadad 244236
ĠslÃ¤pptes 244165
ĠtillbehÃ¶r 244130
Ã¤rerna 244088
ĠVÃ¤rld 244009
smedel 244001
vara 243981
bank 243967
Ġvardera 243949
ĠGrand 243907
ĠsistnÃ¤mnda 243903
Ġredovisas 243899
Ġkvinn 243853
uer 243847
sfÃ¶rening 243761
ĠmÃ¥ndags 243752
Ġbetyda 243674
Ġskillnader 243667
Ġnov 243644
Ġnyfiken 243644
ĠSovjetunionen 243580
ci 243559
ĠDer 243542
Ġsocialdemokraterna 243484
stÃ¥nd 243432
ĠdÃ¤rav 243395
Ġstiger 243393
Ġavslutar 243348
riv 243302
UND 243255
ĠSvenskt 243165
ĠElisabeth 243140
ĠdÃ¤rigenom 243129
Ġskulder 243119
ĠGÃ¤ller 243041
ĠsnÃ¶n 243000
ĠfÃ¶redrar 242980
Ġsite 242965
bilen 242900
ĠarbetsmiljÃ¶ 242878
ban 242785
produktion 242752
ĠframgÃ¥ngar 242751
Ġpappers 242713
sse 242587
Ġvandring 242572
Ġind 242519
sskydd 242489
Ġtekniskt 242437
ĠmÃ¶tt 242397
Ġ81 242381
ĠfÃ¶rfogande 242367
Ġkyckling 242301
ĠJanne 242177
ĠLu 242150
Ġtemat 242137
Ġforum 242121
Ġanal 242106
ĠEgentligen 242103
ĠlÃ¤rande 242056
ĠfÃ¥nga 241999
ĠKv 241998
ĠFotboll 241985
Ġlokalen 241925
ĠovanfÃ¶r 241903
ĠkommunfullmÃ¤ktige 241874
ĠBegrav 241812
Ġsynpunkt 241811
Ġbegreppet 241782
ĠChrist 241631
Ġcenter 241616
ĠÃħker 241449
Ġtillverkning 241438
Ġkamrat 241422
Ġterror 241401
ledaren 241379
ĠuppgÃ¥r 241369
ĠhjÃ¤lpt 241317
srÃ¤tt 241241
Ġarbetstid 241240
Ġliknar 241169
Ġserier 241161
ĠHult 241159
besÃ¶k 241090
ĠCenter 241065
ftet 241049
Ġundrade 241049
omen 241038
Ġ93 241035
ĠfÃ¶rbÃ¤ttring 240954
ĠfÃ¶rbereda 240942
Ġkorv 240897
Ġvinden 240816
hammar 240799
ĠJÃ¶rgen 240783
ĠfÃ¶rsvinna 240750
ĠPet 240692
ĠanlÃ¤ggningar 240648
ĠomgÃ¥ngen 240612
Ġ1987 240599
ĠintÃ¤kter 240544
Ġparter 240490
ross 240470
sprÃ¥k 240414
Ġklarat 240394
ĠÃ¤garen 240389
material 240372
Ġdis 240371
Ġtrycker 240320
ĠÌģ 240305
Ġ1984 240285
ĠsÃ¤kerstÃ¤lla 240229
Ġtransporter 240222
Ġavslutning 240189
hel 240096
Ġriktar 240092
ĠDess 240085
ĠfÃ¶delsedag 240084
Ġmaken 240031
Ġavslut 240024
Ġtrend 239939
Ġpersonligen 239896
ĠvÃ¤cka 239870
ĠjÃ¤mte 239779
lista 239762
Ġintensiv 239716
Ġutreda 239693
skolans 239672
ĠutÃ¥t 239607
Ġvir 239536
Ġ070 239533
Ã¤mning 239456
Ġ1982 239455
rÃ¶relse 239445
ĠfÃ¶rbundet 239397
Ã¤sta 239393
Ġskatten 239252
ĠReal 239199
Ġgator 239185
Ġbrun 239177
Ġalternativt 239162
Ġpigg 239160
Ġavslutas 239144
esl 239088
gern 239058
ĠtÃ¤tbefolkat 238990
Ġ1940 238976
Ġshopping 238964
ĠFrida 238963
ĠDating 238917
Ġanger 238899
ĠHo 238858
ĠStr 238800
ĠVik 238780
Ġdjuren 238740
oth 238735
ativt 238700
sverksamhet 238694
ĠskÃ¶nhet 238664
Ġdar 238642
Ġverklig 238630
otten 238596
Ġkyl 238588
Ġvagn 238574
Ġsplitt 238488
rÃ¤da 238471
Ġtillhanda 238465
Ġ160 238462
Ġtankarna 238439
ĠKol 238308
Ġminnet 238259
ĠstrÃ¥lande 238228
oka 238218
Ġfyllde 238204
ĠFil 238188
Ġintag 238187
ĠsnÃ¤lla 238089
86 237898
Ġsaknade 237888
ĠgodkÃ¤nt 237876
Ġprodukten 237843
ĠFamilj 237814
ĠAx 237794
ĠÃ¥terkommer 237755
Ġhittades 237716
ĠinrÃ¤tt 237696
ĠJens 237659
Ġfitta 237601
ĠFÃ¶re 237500
delningen 237404
Ġglobala 237373
Ġsoldater 237314
resan 237254
ĠfÃ¶rbundskapten 237196
ĠÃĸr 237196
ĠSy 237191
ĠlÃ¶k 237095
organisationen 237070
Ġlugna 237019
behandling 237018
pre 236962
ĠÃ¶nska 236955
Ġ130 236900
Ġkart 236858
ĠVÃ¤g 236811
Ġtju 236789
ĠkÃ¤rn 236735
ĠplÃ¥t 236733
sal 236715
ĠnÃ¤rvaro 236691
Ġgrip 236685
kurs 236668
Ġmusiker 236656
ĠslÃ¥ss 236646
ĠKu 236571
Ġoperation 236564
Ġtabellen 236549
Ġkram 236540
ĠAnd 236502
ĠTILL 236464
Ġtank 236437
sverket 236435
ĠVisserligen 236432
Ġursprungliga 236421
ĠBig 236408
ah 236203
Ġgula 236189
ĠWorld 236159
ĠfÃ¶refaller 236079
jÃ¤m 236071
Ġfransk 236071
ĠvÃ¤grar 236052
ĠfÃ¶reningens 236048
Ġsynas 235968
llan 235899
ĠmÃ¶rkt 235896
Ġlantbruk 235820
Ġkallades 235809
ops 235769
ĠlÃ¤nkar 235759
ĠarbetslÃ¶sa 235737
Ġnaken 235664
Ġrom 235512
ios 235422
Ġkommentera 235347
Ġsiffrorna 235335
ansvar 235236
Ġmjuka 235236
ĠÃ¶vergrepp 235214
ĠsamrÃ¥d 235204
ĠWashington 235125
Ġkvitt 235066
sol 235053
ĠsysselsÃ¤ttning 235036
ĠsÃ¥lt 235035
Ġtappar 234995
ĠlÃ¤ger 234944
iteter 234934
ĠbegrÃ¤nsat 234934
Ġsallad 234823
ĠStats 234808
istan 234726
ĠlÃ¤karen 234705
Ġmiljard 234635
Ġkollar 234584
ĠKam 234512
rikt 234334
ĠstÃ¤ll 234308
Ġdrev 234297
eten 234258
viken 234249
CH 234228
Ġfynd 234204
fÃ¶rs 234202
Ġkoka 234010
ĠHittills 233997
ĠOskar 233938
jÃ¤rn 233857
ĠIda 233806
Ġsub 233787
Ġsamarbet 233746
ĠbestÃ¤mmelserna 233723
ĠhÃ¤rom 233716
idae 233712
Ġflyga 233711
ĠGull 233680
ĠSaab 233564
ĠVictor 233556
ĠvÃ¤ger 233524
ĠPetter 233495
Ġpresent 233437
sjÃ¶n 233423
Ġsej 233415
Ġfacebook 233258
Ġfemton 233254
ester 233214
ĠFull 233095
ĠbesÃ¶kt 233070
Ġplaceras 232964
ĠMargareta 232919
Ġdiskuteras 232900
ĠdagslÃ¤get 232897
ĠnivÃ¥n 232895
ĠfÃ¶reslagit 232858
Ġoftare 232782
Ġlinjen 232755
Ġ1979 232736
Ġpartiets 232719
ĠsÃ¶ta 232662
mod 232627
Ġformat 232595
ĠÃ¥tervÃ¤nda 232590
Ġtrupp 232565
ition 232516
Ġ97 232442
Ġpenning 232428
ĠNÃ¤rmast 232355
ÃĦN 232324
Ġdagars 232283
ĠSmÃ¥land 232207
ĠAmerikansk 232164
ĠAlex 232138
Ġlax 232095
Ġindividuella 231903
Ġmal 231835
Ġmom 231791
Ġutvecklat 231692
Ġass 231691
ĠChristina 231643
pon 231599
Ġsyfta 231588
maskiner 231552
ĠfÃ¶retags 231481
ĠÃ¥ng 231461
Ġwebbplatsen 231442
Ġsyr 231435
ettan 231380
Ġlikhet 231353
ĠNÃ¤rmare 231348
Ġkungen 231348
stre 231346
ĠRÃ¥d 231346
ĠUddevalla 231304
Ġdomen 231290
stopp 231258
ĠOM 231200
ĠJulia 231195
Ġsticker 231194
Ġfrom 231182
skontoret 231172
stra 231131
slut 231122
Ġhundratals 231082
Ġvilt 231064
ids 231036
Ġkonkret 231012
vÃ¤rden 230917
ĠSEK 230913
ĠUngdom 230892
Ġved 230889
Ġtron 230855
fÃ¶rvaltningen 230798
Ġskala 230798
Ġstack 230788
Ġperioder 230771
Ġflest 230741
Ġfrid 230719
ĠmÃ¤tt 230698
uts 230600
ĠfÃ¶dda 230587
sbe 230568
iver 230549
ĠmjÃ¶l 230498
Ġ91 230487
ĠtrÃ¤nat 230482
ĠfÃ¶rh 230444
speriod 230382
Ã¤ngd 230288
Ġupplevt 230280
ĠframgÃ¥ngsrika 230139
Ġtekniker 230125
dell 230124
ĠSÃ¶ker 230043
Ġsag 229976
stationen 229968
ĠavgÃ¶r 229953
Ġminuters 229940
Ġfly 229936
ĠfÃ¶reskrifter 229924
ano 229865
rift 229759
ĠbestÃ¤llning 229706
stein 229685
vÃ¤gar 229677
Ġledarskap 229637
kontoret 229597
ĠlÃ¤rarna 229522
Ġleg 229511
Ġ1976 229471
pper 229433
Ġlevererar 229400
ĠbÃ¤gge 229393
Ã¥k 229366
skl 229317
Ġlyft 229298
ĠAD 229291
unden 229264
Ġkonkur 229211
ĠsÃ¶ 229197
Ġtelefonen 229176
Ġ92 229128
ĠIngemar 229114
ves 229102
Ġmedvetna 229027
ĠInstagram 229019
Ġpersonlighet 228990
Ġrak 228974
bas 228972
ĠsydÃ¶stra 228967
serien 228966
ĠhÃ¶gtid 228966
ĠFramfÃ¶r 228962
Ġpanik 228858
ĠKÃ¤ll 228834
Ġunikt 228805
Ġishockey 228801
ĠKvinnan 228725
Ġyrk 228715
Ġkravet 228641
unds 228635
ĠkrÃ¤vde 228568
Ġsticka 228523
oli 228514
ĠfÃ¶rresten 228464
Ġgrus 228457
Ġambulans 228410
ĠmÃ¥ngfald 228378
Ġgat 228326
uro 228311
ĠbÃ¶n 228311
Ġorg 228307
Ġkraftiga 228300
Ġvetenskapliga 228289
strid 228279
byn 228147
ĠfÃ¶rare 228133
ĠVilla 228032
ĠbedÃ¶ms 228009
vitt 227980
Ġfattig 227964
ĠTitta 227962
Ġseparat 227958
Ġriv 227954
ĠStart 227791
Ġbetal 227725
unch 227616
ĠLouise 227572
ĠPÃħ 227529
ĠlÃ¤gen 227509
Ġkassa 227489
Ġmedlemskap 227447
Ġdamm 227440
Ġtomma 227404
grad 227363
Ġjulen 227324
ĠÃ¥terkommande 227303
Ġvinsten 227291
kÃ¶r 227172
hÃ¥llning 227137
Ġriksdagens 227068
hÃ¤ng 227064
ĠMiljÃ¶ 227055
verken 227032
delning 227013
ĠÃĦldre 226982
ĠAfghanistan 226935
ordet 226845
enn 226760
ĠrÃ¤ttegÃ¥ng 226754
Ġkonsumtion 226739
ĠovÃ¤ntat 226722
ea 226716
ĠsÃ¤g 226700
Ġpresentation 226695
ĠfÃ¶rskott 226623
ĠJesper 226606
ledningen 226605
ĠKV 226566
Ġsambo 226558
Ġsanning 226541
ĠThai 226499
ĠbrÃ¥k 226453
fÃ¶ra 226443
Ġab 226401
Ġuppt 226258
ĠfÃ¶rvaltnings 226247
ĠberÃ¶mda 226177
avtal 226151
rats 226136
sbr 226079
Ġhemsidan 226035
ĠPersonal 226024
smannen 226016
Äģ 226001
elsens 225928
Ġkanon 225893
Ġomfattas 225850
center 225848
ĠmiljÃ¶er 225813
ĠanvÃ¤nd 225756
kast 225748
Ġchock 225733
ĠhjÃ¤rn 225722
Ġskolorna 225704
Ġlivsstil 225698
ĠBorlÃ¤nge 225687
ĠfÃ¶lj 225664
Ġtelefonnummer 225636
Ġfattas 225588
Ġroller 225574
Ġvolym 225521
sig 225480
Ġhimlen 225436
Ġmarginal 225429
Ġnationell 225402
Ġbidragit 225394
Ġ1974 225371
ĠÃ¤rlig 225361
ĠjÃ¤mstÃ¤lldhet 225325
Ġbestod 225291
andra 225267
Ġberedda 225218
ĠSkicka 225201
ĠGott 225138
ĠMadrid 225112
Ġbiblioteket 225106
Ġ1930 225104
Ġvaldes 225103
Ġbesluta 225027
Ġparker 224983
slÃ¶sa 224973
ĠJacob 224924
giv 224923
Ġ1968 224873
Ġfavoriter 224847
Ġveck 224796
jÃ¤r 224788
sbest 224756
arg 224730
undersÃ¶kning 224726
ĠIdrott 224628
ĠonÃ¶digt 224590
ĠbrÃ¤nsle 224574
Ġhandboll 224532
ĠUte 224505
Ġlasarett 224470
Ġgillade 224469
Ġgitarr 224443
utbildningen 224384
sida 224341
do 224302
ĠOffic 224231
ĠRune 224207
iant 224191
ĠIndustri 224176
Ġnegativ 224171
ĠPR 224140
Ġgrannar 224118
Ġavslutades 224110
Ġrekommendera 224098
igenom 224096
ĠSil 224092
varor 224027
lÃ¤gg 224000
Ġapotek 223991
Ġkorn 223942
Ġbetong 223940
ĠLÃ¶ 223879
Ġbasen 223820
IST 223721
Ġkonstruktion 223647
smÃ¤ssigt 223646
ĠTal 223639
Ġstall 223555
Ġfoten 223512
Ġbarndom 223488
Ġindustr 223409
ĠWil 223404
ĠFrÃ¶lunda 223336
ĠreligiÃ¶sa 223311
ĠordfÃ¶randen 223246
ĠalltjÃ¤mt 223229
samling 223143
Ġplacera 223113
ĠfÃ¶restÃ¤llning 223103
Ġpresidenten 223084
Ġmissat 223062
fer 223043
ĠLunds 223027
sprocessen 223018
ĠbedÃ¶mer 222984
ĠstÃ¶ld 222966
ĠStatens 222938
Ġminskning 222936
ĠVita 222916
ĠÃ¶gat 222898
grÃ¤nsen 222865
ĠspÃ¤nning 222831
Ġmissbruk 222800
fram 222723
juk 222721
ĠÃ¶verl 222696
handling 222694
ĠmÃ¶ttes 222672
Ġkastade 222617
ĠKatarina 222609
no 222598
hÃ¥llande 222586
Ġkonkreta 222585
kvÃ¤ll 222578
sna 222556
Ġskilja 222543
ĠvÃ¤ljarna 222542
Ġbyte 222539
former 222521
rÃ¤kning 222502
Ġgra 222492
Ġarrangemang 222471
cy 222441
Ġintet 222438
ĠCam 222420
ĠPan 222336
Ġverksam 222302
otter 222269
ENT 222263
ĠjÃ¤mna 222221
ĠOK 222197
ĠfrÃ¤mja 222175
Ġmejl 222151
ĠsÃ¤kerligen 222134
ista 222119
ĠArena 222094
Ġrubriken 222042
ills 221918
ĠpÃ¥stÃ¥ 221878
uf 221844
alisering 221821
ĠBK 221800
Ġ175 221798
ĠfÃ¥tal 221768
Ġhen 221749
Ġvarvid 221737
ĠslÃ¤ppt 221720
Ġbekanta 221689
handeln 221668
ĠSon 221608
Ġhallen 221605
ĠOve 221517
ĠfÃ¶tter 221475
Ġ350 221428
Ġmissa 221421
ĠkÃ¶pet 221408
skal 221388
Ä« 221373
Ã¥ring 221334
lÃ¥t 221330
Ã¤gen 221306
ĠNaturligtvis 221260
Ġbal 221238
Ġdy 221148
ĠBromma 221115
ĠÃ¶verraskande 221060
parken 221054
ĠÂ® 221046
Ġmandat 221010
jakt 220951
ĠleverantÃ¶r 220913
ĠMu 220887
vo 220872
ĠbÃ¥tar 220738
Ġbytte 220721
ĠglÃ¶mmer 220657
go 220589
GA 220552
bÃ¶cker 220466
ĠLÃ¶v 220419
Ġfylld 220340
Ġpubliceras 220315
ĠsjÃ¤tte 220304
Ġprivatpersoner 220289
ĠskÃ¶ts 220276
ĠkonstnÃ¤rer 220254
Ġtjejerna 220236
ĠanmÃ¤l 220218
Ġmarknads 220218
ĠRy 220212
Ġhemlighet 220178
Ġdelstaten 220174
ĠsÃ¥r 220172
Ġjapanska 220135
fta 220053
Ġextrem 220050
ĠÂ© 219995
Ġbed 219981
Ġlysande 219913
fÃ¶rsÃ¤kring 219897
gat 219857
ĠkÃ¤lla 219834
kanten 219746
ĠFord 219710
ĠvÃ¥gade 219666
rare 219653
ĠkÃ¤nnedom 219529
lander 219455
ĠÃ¤lska 219398
Ġappen 219324
issionen 219318
inister 219253
ĠportrÃ¤tt 219250
Ã¤mn 219150
terade 219128
ĠGunilla 219118
ĠPlÃ¶tsligt 219110
Ġdagis 219037
Ġbanker 219015
Ġpermanent 218999
Ġgifte 218997
ĠNacka 218988
ARE 218906
ND 218896
gÃ¥ 218876
ĠFack 218817
Ġmans 218803
fÃ¤rd 218787
Ġkro 218764
Ġkod 218750
styrelsens 218617
ssen 218589
Ġste 218528
ĠfÃ¶rtjÃ¤nar 218502
jag 218345
Ġreformer 218330
ĠkÃ¥ta 218296
Ġbildar 218265
ĠstjÃ¤rnor 218261
ĠlÃ¤ngden 218235
Ġtorget 218232
Ġwebbplatser 218205
ĠKur 218189
ĠVan 218170
ĠTobias 218155
Ġmedicinska 218139
sbrott 218106
ĠbrÃ¤nn 218105
umma 218090
ĠAnnie 218067
ori 218026
olja 217975
Ġskogs 217947
Ġartist 217928
Ġarkiv 217922
ĠmÃ¤rk 217874
ĠKi 217847
orget 217838
ĠskÃ¤rgÃ¥rd 217828
llen 217654
ĠMr 217546
ĠupprÃ¤tt 217534
ĠfÃ¶rekommande 217502
atiska 217384
ĠrÃ¶relsen 217380
ansvarig 217293
Ġljusa 217271
bladet 217266
Ġfonder 217206
Ġhyll 217205
23 217198
Ġparterna 217156
Ġskal 217147
UT 217125
ĠPart 217113
Ġfigur 217099
ew 217078
Ġrepresenterar 217055
ĠfÃ¶rluster 217051
ĠVÃ¥rd 217031
hen 217029
nummer 216996
lim 216990
ĠsjÃ¶nk 216913
bidrag 216908
Ġyttrande 216855
ĠGal 216847
ĠpremiÃ¤ren 216813
skv 216805
ĠRÃ¶ 216795
Ġgymnasie 216722
Ġproducera 216687
sund 216683
Ġhett 216679
ĠGreen 216667
olin 216643
rid 216627
Ġgruv 216610
valet 216595
ĠmÃ¥lvakten 216577
ĠbelÃ¤gen 216534
Ġflashback 216526
Ġansvariga 216475
Ġkomplett 216362
ima 216352
Ġskiv 216323
Ġsjukdomen 216217
list 216196
sko 216080
ĠFOT 216040
BER 216020
ĠBakom 216008
Ġgrill 215945
mÃ¶te 215940
ĠvÃ¤rm 215934
ĠsÃ¤tts 215928
ĠSHL 215921
hol 215906
Ġmak 215888
ĠsÃ¥hÃ¤r 215878
Ġskattes 215851
ili 215779
derade 215774
Ġriket 215725
ĠDo 215723
Ġretur 215710
Ġ1973 215663
ĠfÃ¶rhÃ¥llandena 215655
Ġplanerna 215597
arp 215596
Ġsvamp 215580
Ã¤dd 215553
ĠMid 215542
ĠmÃ¤ta 215469
Ġcitron 215424
Ġkast 215393
ĠuppstÃ¥ 215393
ĠÃĸstra 215392
Ġsyftet 215365
sprogrammet 215288
VA 215285
ĠMont 215264
Ġflygplan 215224
Ġflygplats 215187
vr 215179
Ġbeg 215160
Ġlyser 215160
Ġpers 215157
Ġpsykisk 215039
STA 214861
centrum 214825
Ġdryck 214820
Ġmedie 214790
ĠfÃ¶rmÃ¥gan 214781
ĠnÃ¤mnas 214639
ĠDra 214597
drar 214590
ĠStina 214576
ionerna 214547
ĠStat 214530
Ġrestaurangen 214468
Ġfinaste 214456
Ġlands 214381
ĠkÃ¤llor 214379
cha 214306
ĠstÃ¥ende 214243
Ġrep 214238
Ġ1983 214220
maren 214176
Ġskriven 214101
Ġappar 214088
fÃ¤r 214082
Ġhimmel 214051
ĠManchester 214019
Ġts 214014
kostnader 214013
Ġ1981 214008
skostnader 214006
ĠÃ¶ppnas 213999
Ġ1977 213998
ĠAli 213962
Ġhemliga 213942
supp 213934
ĠHy 213929
ĠtillgÃ¥ngar 213926
Ġmordet 213912
Ġodling 213881
ismens 213876
ĠfÃ¤rgen 213876
ĠstÃ¤mma 213805
Ġregister 213794
Ġmkt 213708
Ġdansa 213679
Ġcyklar 213677
LA 213667
ĠfÃ¶rhandlingarna 213626
Ã¶kning 213618
ĠAlice 213618
Ġkristen 213599
Ġdispon 213543
stÃ¥ 213505
add 213485
ĠMÃ¤nniskor 213468
ĠrÃ¶stade 213424
ĠpÃ¤r 213418
Ġhatar 213395
ologisk 213294
ĠtÃ¥l 213267
oper 213233
ĠmÃ¤stare 213182
Ġflick 213167
Ġvilda 213159
ĠSmÃ¥ 213149
Ġutlandet 213120
ĠvÃ¤d 213081
Ġpresskonferens 213029
stÃ¥ndet 213012
ĠrÃ¥kade 212917
Ġingick 212910
ĠSture 212908
Ġredovisning 212872
hov 212847
hÃ¤ll 212834
ĠBR 212777
ĠmÃ¤ngden 212752
ĠvederbÃ¶rande 212736
ĠbÃ¶ckerna 212718
Ġtidpunkt 212717
Ġskickat 212676
Ġrullar 212667
ĠTer 212643
ads 212623
ĠLid 212604
ĠSun 212541
ĠDejting 212510
Ġ170 212492
Ġdjupa 212479
smÃ¶te 212459
Ġbosatt 212453
ĠBad 212432
Ġkli 212423
Ġhum 212353
Ġhandeln 212350
ubb 212313
ĠSÃ¤ 212266
Ġbarnets 212262
ĠtonÃ¥r 212240
planen 212222
Ġpartiled 212198
Ġkombineras 212166
ĠtÃ¤nder 212162
ografi 212159
bert 212155
Ġprotest 212151
ĠvÃ¤rlds 212118
Ġmix 212086
ĠÃ¥klagaren 212035
ĠDonald 211994
ips 211903
hav 211875
Ġbalkong 211711
Ġnykter 211672
ĠLindstrÃ¶m 211659
Ġrull 211648
ĠansÃ¥gs 211616
ĠavsevÃ¤rt 211576
Ġbevara 211572
intresse 211486
ĠgrÃ¤dde 211475
Ġbrinner 211398
vill 211376
ĠrÃ¶star 211261
iot 211238
ĠStrax 211160
oden 211148
Ġgrymt 211119
Ġration 211088
tyskland 211056
Ġspecifika 211035
priser 211026
Ġrida 211020
Ġmedverkar 210995
Ã¤mp 210976
person 210901
Ġpojken 210898
ĠpensionÃ¤rer 210852
dre 210849
Ġvistas 210833
rit 210830
ĠGeorg 210809
ĠÃ¶verhuvudtaget 210736
Ġmedalj 210703
Ġfenomen 210691
Ġpublic 210635
ĠÃ¶ron 210629
ION 210616
Ġvideor 210606
ĠCharlotte 210550
byggnaden 210511
ĠThaimassage 210480
Ġbaserat 210421
Ġkostade 210401
ĠService 210388
ĠrÃ¥kar 210347
Ġutbildningar 210331
Ġthis 210324
Ġuppstod 210305
Ġanbud 210283
ĠRad 210279
Ġsyntes 210271
ĠPriset 210270
tering 210259
Ġadministration 210258
yrk 210253
ĠIvar 210197
ĠfÃ¶rÃ¤ndrats 210180
Ġhjul 210085
ĠLiksom 210044
ĠvÃ¤rst 210024
ĠsÃ¤ttas 210018
istr 209985
ĠhÃ¤ll 209958
Ġ1978 209908
Ġmaste 209886
Ġklev 209838
Ġtredjedel 209793
ĠÃ¶vergripande 209771
ĠSÃĸ 209718
atÃ¶r 209678
Ġskyldighet 209659
ĠkarriÃ¤ren 209649
jud 209572
Ġpiano 209517
ĠlÃ¥ngsiktigt 209452
ĠfÃ¶ren 209446
ĠGP 209402
enhet 209395
Ġvakna 209381
Ġfat 209322
sbygg 209244
ĠSwedish 209218
Ġutredningar 209209
kap 209201
Ġallians 209087
ĠGÃ¶taland 209073
ĠtÃ¤cker 209059
ĠCha 209054
ĠStaffan 209034
ĠgenomfÃ¶rs 209030
ĠÃ¶verleva 208957
fÃ¶rsÃ¤ljning 208894
ĠKlart 208852
ĠJohnson 208819
ĠAk 208816
skort 208747
Ġsnack 208735
ĠsÃ¤nkt 208718
Ġnorm 208663
Ġstud 208642
Ġkryss 208567
Ġtri 208534
ĠslÃ¤pps 208523
ĠFinans 208518
Ġuppfyller 208507
esa 208477
Ġplugga 208476
klÃ¤der 208466
stillstÃ¥nd 208438
lek 208414
Ġdemokratin 208409
Ġjo 208353
Ġkvinnlig 208343
Ġbristande 208296
Ġrust 208226
Ġbilarna 208203
ullen 208184
ĠÃħkesson 208149
Ġcity 208119
Ġskrek 208106
ĠfÃ¶rsvunnit 208070
ĠvÃ¤rda 208045
Ġvardagsrum 207909
ĠfÃ¶restÃ¤llningen 207908
fast 207904
Ġinformera 207840
Ġheder 207833
Ġinfrastruktur 207797
Ġskepp 207697
Ġmottag 207693
ĠPort 207649
ĠtvÃ¤r 207646
berga 207633
Ġmissar 207633
ĠAlliansen 207620
Ġkontoret 207581
sfÃ¶rbundet 207565
eller 207545
Ã¤garna 207515
Ġligan 207461
yst 207457
hs 207387
Ġbloggar 207365
ĠPiteÃ¥ 207363
Ġsamtalet 207361
iller 207322
Ġoffentligt 207230
ĠCO 207174
ĠFer 207161
ĠHolland 207137
loppet 207119
mot 207086
vers 207064
Ġdiskussionen 207012
institut 206989
Ġchefer 206989
ĠVÃ¤nsterpartiet 206965
Ġlyssnade 206877
Ġprom 206850
Ġflyger 206839
vad 206803
ĠtillhÃ¶rande 206786
ĠPress 206697
dra 206641
ĠAlbert 206576
ĠtrÃ¤nings 206541
splaner 206529
Ġturister 206452
Ġutvalda 206447
ĠMED 206440
ĠBollnÃ¤s 206427
Ġock 206291
Ġkoppling 206274
Ġerotisk 206270
ĠJean 206231
Ġklubbens 206221
Ġho 206180
ĠHen 206158
ĠsmÃ¤ll 206134
ĠrÃ¶rde 206116
ĠdÃ¶rrar 206096
arv 206095
Ġcivila 206055
ĠomgÃ¥ende 206043
ĠtillhÃ¶rde 206009
ase 206000
Ġkrist 205992
ĠÃ¥rsmÃ¶te 205946
Ġinleds 205943
Ġ1600 205920
vapen 205916
ordningen 205858
ĠMiss 205809
ĠCecilia 205808
Ġeleven 205771
Ã¤tta 205733
Ġkonsumenter 205710
ĠavslÃ¶ja 205678
Ġreagerar 205649
Ġinterna 205645
Ġprestation 205638
domen 205605
lo 205594
ĠseriÃ¶s 205550
Ġkombinera 205489
Ġkritisk 205478
Ġtermin 205385
stens 205375
ĠÃ¶verraskning 205291
Ġlandskapet 205266
ĠMus 205244
ĠNytt 205194
Ġfukt 205167
ĠsammantrÃ¤de 205141
ĠfÃ¶rf 205103
ÃŃ 204912
Ġintervjuer 204841
sdag 204830
idan 204811
acken 204754
skrivna 204736
draget 204655
Ġkrisen 204640
ulla 204637
bra 204631
Ġ1971 204615
ĠbekrÃ¤ftar 204591
banken 204587
sland 204570
jÃ¤l 204527
Ġ1972 204489
ĠlÃ¶per 204477
Ġblomster 204430
Ġmyndigheten 204428
ikan 204400
iserad 204369
Ġupphov 204344
press 204337
ĠgÃ¥ngna 204327
ĠÂ¤ 204245
Ġkontakten 204205
park 204198
Ġsektorn 204193
Ġmuslimer 204154
Ġskadades 204078
ils 204052
Ġtydligare 204034
Ġtomten 203996
match 203977
stan 203942
Ġordningen 203942
ĠPC 203869
Ġnye 203840
Ġhoppar 203804
Ġkok 203784
orerna 203772
di 203750
Ġbranden 203685
ĠuppvÃ¤xt 203685
skade 203679
Ġstiga 203620
ĠJord 203587
sla 203545
mt 203537
Ġkoncept 203463
Ġgaranterat 203442
Ġvoro 203437
ĠPia 203388
atis 203354
ĠLÃ¶r 203322
Ġmatte 203285
Ã¶ll 203283
ĠrÃ¤ttvis 203245
Ġangrepp 203236
byt 203232
ĠstÃ¤da 203179
kontor 203177
ĠfullmÃ¤ktige 203155
Ġavancerade 203143
ĠAdolf 203142
Ġsvaga 203124
Ġkyrkor 203099
rÃ¤det 203012
Ġkommissionen 203009
inns 203002
punkter 202983
ĠtrÃ¥d 202941
ath 202933
ĠjÃ¤tt 202866
kommun 202860
ĠNyhet 202836
Ġsprider 202800
Ġfatt 202782
ĠfÃ¶rsÃ¤ljnings 202753
budet 202717
Ġfallit 202708
Ġutslag 202702
ĠstÃ¤d 202690
ĠÃĦntligen 202646
ĠfÃ¶rel 202599
ĠvÃ¤garna 202561
hamns 202516
ĠSyn 202514
ĠmisstÃ¤nks 202433
Ġambition 202424
sprojekt 202420
lagd 202399
Ġuttalanden 202388
ĠPen 202325
ĠtrÃ¤ffades 202324
Ġporno 202319
Ġsamarbetar 202264
ĠfÃ¶reslÃ¥ 202241
Ġ125 202239
ĠbegrÃ¤nsa 202203
ĠSÃ¥dana 202176
best 202131
ĠgenomfÃ¶r 202091
skrav 202011
urer 202007
klag 201984
Ġlades 201936
sdagen 201897
ĠTri 201876
ĠAs 201843
alla 201833
ĠGlÃ¶m 201807
Ġkontrollen 201793
ĠkvÃ¤llens 201772
ĠMol 201761
Ġfris 201724
Ġlovat 201701
ĠtillrÃ¤cklig 201686
ĠFC 201664
Ġ1967 201662
ĠMarianne 201654
ssam 201602
Ġkonsten 201546
ĠNational 201535
ĠÃ¤gnar 201530
ĠfristÃ¥ende 201527
ĠstÃ¤nger 201525
ĠHandel 201482
EB 201458
ĠFilip 201438
Ġguide 201386
ĠÃ¤l 201370
Ġtabell 201275
Ġget 201263
roll 201260
Ġupphandling 201241
Ġ1965 201233
Ġplacerade 201229
ement 201215
ĠÃ¶vningar 201203
ĠLas 201202
imm 201196
ĠtillÃ¤mpning 201153
Ġyng 201136
fÃ¤st 201112
Ġreservation 201103
Ġorkade 201066
SB 201024
ĠGay 200983
Ġdeltagit 200979
Ġvanligen 200936
ĠMell 200914
ĠIs 200889
ĠMonica 200834
ĠmÃ¤nnisk 200789
Ġeffekten 200786
ocka 200759
Ġorgel 200732
ĠPalme 200729
heim 200704
angen 200689
lÃ¤ndska 200687
esp 200668
hantering 200638
resultat 200601
Ġvision 200579
skrifter 200558
ĠBu 200543
gifter 200532
Ġutbyte 200463
gra 200461
Ġengelsk 200460
ĠglÃ¶m 200407
ight 200354
Ġlu 200324
ua 200318
Ġkonflikter 200225
Ġgarage 200209
ĠFredag 200194
ĠSMS 200192
Ġallsvenska 200184
Ġomfatta 200180
Ġhektar 200113
gjort 200090
Ġflyttas 200073
ĠnervÃ¶s 200015
Ġfallen 199963
ĠSydafrika 199959
Ġdiskuterar 199930
linjen 199923
ĠTillsÃ¤tt 199875
ĠPlus 199840
Ġ1969 199823
hemmet 199784
ĠBeck 199775
ĠBarcelona 199753
ĠRoland 199728
fÃ¶rslag 199669
Ġalternativet 199631
ĠupptÃ¤cker 199619
Ġkritiken 199606
Ġsupport 199595
Ġprinciper 199588
ĠSebastian 199504
sÃ¥ng 199427
Ġtimmen 199406
ĠOBS 199357
Ġbef 199347
ĠfÃ¶rrÃ¥d 199346
ĠHugo 199331
ĠstÃ¤ngt 199272
Ġ1920 199269
SSON 199264
ĠbefÃ¤l 199204
ĠFal 199163
Ġfattade 199141
Ġparken 199084
Ġkyrkans 199065
Ġvaknar 199024
Ġsiffran 199006
stig 198993
ĠTrafikverket 198975
Ġteori 198902
Ġdrabbades 198878
ĠfÃ¶rvÃ¤rv 198870
ĠSS 198842
Ġlt 198835
Ġplay 198833
Ġstatlig 198832
Ġhamnen 198807
ĠfÃ¶rÃ¤lder 198751
byrÃ¥ 198719
ĠUngern 198675
ode 198644
ĠspÃ¥ret 198629
vÃ¤n 198526
ĠVAR 198515
ĠJÃ¤r 198501
ĠEbba 198497
sbolaget 198471
vert 198402
Ġklimatet 198397
Ġkammaren 198314
kÃ¥r 198283
Ġytt 198262
Ġdjupare 198192
Ġhandlat 198184
emÃ¥l 198173
rag 198146
arter 198107
Ġdomare 198106
Ġpotential 198102
stÃ¤llt 198100
Ġlandstinget 198069
uppdrag 198051
Ġtorsdags 198027
ĠVall 197992
Ġidentifiera 197990
historia 197939
ĠTidningen 197885
Ġakten 197879
ĠTips 197838
ĠdÃ¤ribland 197834
bes 197831
ĠOmkring 197795
Ġarbetsgivaren 197762
Ġmedvetet 197756
ĠÃ¤gs 197734
utan 197685
ĠvÃ¤x 197680
ĠFamiljen 197676
ĠUl 197673
ĠHot 197666
ĠtÃ¤nkas 197649
Ġpil 197622
Ġinkluderar 197613
ĠstÃ¶det 197613
02 197609
ĠZlatan 197584
eds 197500
ĠlÃ¤sning 197484
Ã¤nsle 197456
Ġstarter 197393
ĠframstÃ¤llning 197372
Ġmoment 197328
ILL 197307
ĠgenomfÃ¶rdes 197306
Ġbudgeten 197225
ĠOne 197206
ĠsÃ¶n 197197
Ġsidorna 197136
Ġlevt 197132
ĠberÃ¤ttelsen 197119
Ġtalang 197112
ĠSO 197055
Ġkassan 197039
ĠMagnusson 197027
ĠCal 197008
Ġerotiska 196982
ĠMarkus 196933
gÃ¤r 196911
ĠBÃ¶rje 196874
ney 196841
kes 196826
Ġdos 196826
ĠMiljÃ¶partiet 196698
Ġsamlades 196695
ĠHill 196694
gift 196684
ĠFÃ¶rslaget 196679
Ġfinnes 196653
Ġhantering 196621
Ġheders 196616
garna 196593
ĠID 196573
ĠnulÃ¤get 196572
ĠrÃ¤kning 196560
ĠokÃ¤nd 196545
konst 196492
mak 196480
Ġtappa 196478
ĠAlf 196473
Ġutnyttjas 196457
Ġdoft 196445
slig 196423
Ġuppfattningen 196423
Ġutbyggnad 196395
ĠÃ¤fven 196389
ĠLeksand 196352
ifrÃ¥n 196305
Ġvarefter 196292
ĠFrÃ¥ga 196274
Ġstrider 196244
Ġplaneras 196153
ĠStort 196139
ĠsÃ¤ljare 196053
ĠKL 196021
Ġarmen 196021
Ġparlamentet 195982
Ġstu 195952
Ġutb 195884
Ġkongress 195863
ĠTeater 195859
Ġhed 195845
ĠÃ¤ra 195827
jord 195824
ĠerhÃ¥lla 195803
Ġdun 195798
ĠomgÃ¥ngar 195789
Ġep 195741
Ġfrans 195666
ĠÃ¥l 195666
ĠstÃ¶rt 195629
verkets 195623
ĠsamhÃ¤llen 195562
Ġtaxi 195540
Ġoh 195509
ĠKiruna 195506
ĠfÃ¥glar 195357
ĠvÃ¤ckt 195356
err 195329
Ġtil 195288
ĠrÃ¥det 195254
ĠframstÃ¥r 195209
Ġmission 195203
Ã¶ter 195175
nell 195139
ĠÃ¤ndrade 195120
ĠnÃ¤ 195115
ĠturnÃ© 195083
asa 195053
ĠFA 195047
Ġstolta 195042
Ġursprungligen 194973
Ġbedriver 194955
ĠTorsten 194934
Ġbildas 194846
dags 194832
ĠHasse 194775
Ġannonsen 194733
ĠUT 194693
Ġtryggt 194671
ĠmÃ¥lar 194627
ĠNamnet 194623
tals 194605
ĠCasino 194601
paket 194600
Ġlovade 194587
gre 194575
Ġinspekt 194544
Ġsop 194513
ides 194468
lÃ¤gga 194460
ment 194457
ĠUPP 194456
64 194436
Ġtackade 194422
Ġrymd 194420
Ġfyll 194412
ĠHollywood 194408
Ġolycka 194332
ĠVictoria 194320
ĠfÃ¶reslog 194303
Ġsparar 194246
folk 194175
itar 194169
sbolag 194140
Ġfaktor 194097
Ġpolism 194096
Ġvariant 194096
pi 194053
Ġfoster 194051
unga 194034
ĠPass 193992
ĠCD 193908
ĠCenterpartiet 193898
Ġpassagerare 193898
ĠSel 193857
Ġ1945 193839
ĠBes 193792
Ġkritiska 193771
Ã¶da 193733
ĠNorrbotten 193728
Ġspekul 193711
Ġspetsen 193703
fÃ¶rbundets 193685
Ġangivna 193659
Ġanalyser 193635
ĠBelgien 193604
ĠfÃ¶rebyggande 193602
ĠHalland 193599
ĠvÃ¤xel 193579
Ġkillarna 193489
livet 193483
ĠPat 193471
Ġdal 193443
ĠPlay 193416
ĠhÃ¤lsade 193409
Ġjunior 193397
Ġbeslutar 193389
organ 193343
fÃ¤rg 193281
ĠInger 193249
Ġmysig 193223
ĠrÃ¤k 193205
ĠbÃ¶ter 193183
bygg 193164
ĠbekvÃ¤mt 193158
ĠtrÃ¶st 193133
ĠÃ¶nskade 193098
ĠKontakt 193087
Ġfokuserar 193060
skolor 193058
Ġlivets 193008
Ġonsdags 193008
nytt 192911
Ġlim 192910
ĠMogna 192909
ĠThailand 192899
ĠFÃ¶rsvar 192885
marknad 192877
ĠnÃ¤tter 192874
ĠJÃ¶nkÃ¶pings 192861
rer 192858
ĠrÃ¤ttvisa 192828
ĠTelefon 192827
ĠBert 192796
ierade 192776
ĠkÃ¤ll 192761
Ġbeslag 192759
Ġfrik 192758
ĠLundberg 192710
Ġdirekta 192671
ĠsjÃ¤lvmord 192656
Ġsmidigt 192655
spris 192651
Ġupprepade 192630
Ġrekrytering 192604
Ġcykla 192603
oga 192562
ĠAlfred 192554
ĠbehÃ¥ll 192537
Ġintegration 192522
sperioden 192521
lle 192511
Ġutformning 192497
Ġdrabbar 192491
ĠBL 192489
Ġprakt 192472
Ġhava 192430
ĠtillfredsstÃ¤llande 192418
Ġpen 192408
Ġavs 192384
ĠLandskrona 192355
Ġavsnittet 192352
Ġintensivt 192327
chans 192281
ĠBon 192277
Ġstycke 192200
Ġglatt 192181
Ġbarna 192177
Ġhusen 192170
seftermiddagen 192160
ĠtillfÃ¤lliga 192141
Ġmatematik 192124
ĠstrÃ¤cka 192117
Ġlat 192107
sikt 192091
ĠBjÃ¶rklund 192054
Ġble 192047
ivÃ¥ 192043
Ġsatsningar 192033
ograf 192021
ĠAP 192013
vens 192007
ĠhÃ¥llbarhet 191979
ĠTorbjÃ¶rn 191972
sÃ¶ver 191956
Ġmynt 191950
ĠSlut 191949
Ġtidens 191937
Ġanknytning 191922
line 191900
olt 191886
Ã¥ter 191832
amin 191829
takt 191721
ĠAnal 191706
Ġlidande 191696
rupp 191681
ĠFrid 191681
hal 191648
Ġleksaker 191648
ĠokÃ¤nda 191646
ĠjÃ¤mnt 191621
Ġbytt 191616
asen 191615
Ġhindrar 191589
alten 191584
ĠvÃ¤ggar 191532
gÃ¶ra 191513
ĠKod 191418
amb 191363
Ġkat 191345
ĠLive 191342
Ġdyka 191319
jas 191303
ĠvÃ¤nlig 191288
vÃ¤rme 191271
ĠÃ¥ldrar 191256
stÃ¤llas 191242
aterna 191200
position 191166
Ġmur 191143
ld 191127
Ġblicken 191122
satte 191118
ĠSju 191065
Ġslaget 190982
ĠframgÃ¥ngsrik 190909
Ġkontra 190879
Ġthat 190878
Ġkollektiv 190872
Ġtraditionell 190864
ĠMia 190815
Ġmarin 190781
Ġfarten 190780
ĠKe 190725
stav 190722
ĠInternational 190719
ĠhÃ¤vda 190716
ĠAlm 190710
Ġenerg 190673
Ã¤gga 190671
Ġinstitut 190671
Ġopinion 190640
ĠUng 190587
Ġbes 190587
ĠhÃ¶jning 190559
Ġuniversitetet 190551
ĠMad 190510
ĠfÃ¶rsiktig 190451
Ġmage 190444
Ã¤ckt 190412
ysningar 190406
ĠingÃ¥ende 190389
dering 190349
ovic 190344
ĠWik 190284
ĠrÃ¶relser 190274
central 190258
ĠhemifrÃ¥n 190246
Ġslump 190153
ĠIII 190136
givning 190088
ĠHorn 190079
ĠgÃ¥va 190064
ĠHockey 190004
Ã¤nkande 189972
Ġdennes 189950
Ġdop 189939
ĠvÃ¤grade 189933
sberg 189910
ĠBergstrÃ¶m 189886
ĠWa 189814
Ġgenombrott 189813
ĠEg 189802
ĠJO 189799
Ġbegrav 189771
Ġflygplatsen 189752
ene 189733
olf 189728
ĠÃ¶ga 189725
frÃ¥n 189717
ĠUppl 189710
ĠCl 189687
Ã¥rs 189683
Ġhemmalaget 189642
Ġkategorier 189597
Ã¤vling 189512
utrustning 189511
ĠstÃ¤mningen 189504
Ġsil 189466
ĠBli 189461
ĠOpen 189441
komma 189437
Ðµ 189429
ĠAmatÃ¶r 189418
ĠanlÃ¤ggningen 189414
ĠsÃ¤nder 189414
ĠFors 189405
ĠsÃ¤songer 189398
ĠfÃ¶rekommit 189396
ĠtingsrÃ¤tten 189369
ĠLÃ¤tt 189365
OT 189295
etts 189290
Ġbett 189286
Ġtisdags 189246
Ġhandikapp 189226
Ġlyck 189184
ng 189151
ĠstÃ¶tt 189086
Ġtextil 189065
ĠfÃ¶restÃ¤llningar 189034
skriv 189021
Ġstigit 189007
Ġjulafton 188973
IC 188953
Ġvarierande 188953
Ġtiderna 188936
ĠgÃ¤nget 188934
Ġgu 188854
EC 188830
ĠdÃ¶ms 188814
inst 188807
Ġskilj 188759
ĠVit 188741
Ġstryk 188733
Ġbelysning 188698
fabrik 188636
Ġsjunde 188634
Ġhalvleken 188616
Ġlapp 188601
boll 188581
ĠNobel 188579
Ġsiffra 188570
ĠAngeles 188549
ĠtvÃ¤tta 188531
Ġinstitution 188424
stil 188396
ĠVÃ¤ldigt 188395
Ã¤nderna 188355
partiets 188303
Ġhuvudstad 188283
Ġpersonerna 188268
ĠbegrÃ¤nsade 188233
Ġobefolkad 188215
Ġengagerade 188193
bol 188179
Ġmus 188179
Ġkontanter 188156
anken 188137
Ġkretsar 188062
ĠAstrid 188032
ĠSpeciellt 188019
nare 187998
Ġbomull 187979
Ġsexleksaker 187975
ĠCol 187880
ĠTR 187867
ckt 187865
Ġtroligt 187854
ico 187851
Ġhop 187829
Ġkarl 187823
ĠstÃ¤m 187784
ĠhÃ¤starna 187753
ligheterna 187710
ĠangelÃ¤get 187702
ĠTÃ¤by 187650
Ġdrack 187625
Ġsmula 187597
ĠtonÃ¥ring 187584
hagen 187565
mon 187561
Ġpe 187536
vÃ¤xter 187532
Ġhotar 187507
ÃħR 187480
Ġskidor 187472
Ġlicens 187464
ĠvÃ¤cker 187457
ĠMÃ¥ 187428
Ġsmal 187426
ĠmÃ¶rkret 187416
ror 187414
65 187394
Ġford 187390
brist 187283
Ġsorters 187270
ĠCamilla 187089
sÃ¶k 187085
ĠmÃ¤nniskans 187072
ĠsjÃ¶m 187060
ĠgodkÃ¤nd 187044
Ġmetoden 187029
Ġmedger 186982
ĠtjÃ¤nstem 186979
jon 186928
ĠGro 186918
ĠbekvÃ¤m 186917
ĠWill 186893
ĠmÃ¤rkte 186858
Ġsmarta 186849
Ġorsaker 186829
ĠYstad 186819
anne 186794
Ġpor 186791
Ġhistorier 186786
ĠSÃ¶ndag 186753
fÃ¤ll 186750
Ġinvestera 186712
Ġevent 186689
Ġed 186683
Ġhypotekslan 186672
ĠlÃ¥ngsiktiga 186671
ĠAmanda 186649
Ġbeh 186625
ĠÃ¥skÃ¥dare 186621
ĠJessica 186612
Ġtvingats 186604
vagn 186578
ĠsÃ¥na 186573
aker 186571
Ġkaos 186571
byrÃ¥n 186541
ĠhjÃ¤lpmedel 186535
ĠstÃ¤derna 186517
ĠKR 186509
Ġtobak 186494
ĠinfÃ¶rdes 186415
ĠHV 186411
ĠbegÃ¤rt 186376
Ã¤ns 186359
Ġpassande 186339
ĠHuddinge 186331
ole 186324
ĠAM 186289
Ġregistrera 186281
ĠuppfÃ¶ljning 186206
skottet 186175
ĠLove 186148
Ġvak 186143
ĠoxÃ¥ 186065
Ġspecialist 186062
Ġpostadress 186060
Ġklippa 186056
atorn 186053
Ġir 185990
Ġtaga 185989
ĠinnehÃ¶ll 185929
Ġtestat 185923
Ġ1964 185828
Ġforskningen 185811
ĠPolis 185797
ĠfÃ¥ngar 185780
ĠlÃ¤ro 185777
Ġdon 185745
Ġil 185744
Ġomgivande 185685
sparken 185611
Ġpasserar 185538
ĠLivet 185520
ĠPelle 185484
ĠfrÃ¤sch 185482
ĠRyd 185476
utskottet 185470
ĠlÃ¤raren 185453
ĠbestÃ¥ 185400
inas 185389
ĠHotell 185383
ĠklÃ¤ 185369
sÃ¥l 185327
Ġtorka 185310
ĠStÃ¤ll 185250
ĠNumera 185248
ĠerkÃ¤nner 185210
Ġanalysera 185155
lÃ¤ggningen 185146
ĠKing 185081
ĠÃ¶verskott 185077
Ġreform 185040
Ġvisning 185012
Ġkla 184996
Ġutvid 184993
ĠavgÃ¶rs 184969
ĠAnmÃ¤lan 184939
ĠBÃ¤st 184901
ĠstjÃ¤rna 184885
ĠfÃ¶rstÃ¶r 184862
ĠÃ¥tervÃ¤nde 184857
Ġgrym 184818
ĠsvÃ¤r 184772
Ġkvalet 184739
ĠAkt 184703
Ġinstitutioner 184696
sfÃ¶reningen 184690
stor 184683
ĠfÃ¶rsvars 184677
ĠÃ¤lg 184655
ĠmÃ¤ 184635
ĠPappa 184573
ĠfrÃ¶ken 184573
Ġminoritet 184545
Ġfans 184447
ĠtillÃ¤gger 184439
mal 184431
namnet 184395
flytt 184389
ĠYou 184360
ĠomrÃ¥dena 184355
Ġhemskt 184335
Ġnjuter 184282
Ġ2021 184263
iger 184241
ĠfÃ¤ltet 184205
agt 184200
Ġbetrakt 184175
ĠHenry 184159
ĠSÃ¶derhamn 184159
ĠPh 184123
gÃ¶rande 184062
skatten 184038
Ġelement 183999
Ġanta 183953
rÃ¶ 183919
Ġgamle 183893
ĠLÃ¶Ã¶f 183863
ĠÃ¥terfinns 183852
Ġkusten 183828
ĠSÃ¥g 183823
Ġdiesel 183820
Ġavsk 183788
ĠSAS 183736
Ġreportage 183734
Ġkrit 183697
Ġmanus 183675
ĠsjÃ¤lvfÃ¶rtroende 183673
Ġskratta 183666
Ġfestival 183660
ĠAsien 183648
ĠhÃ¶stens 183595
sbyrÃ¥n 183520
Ġskrattade 183509
Ġtillverkar 183501
Ġledar 183479
ĠOtto 183458
ĠInne 183457
nam 183456
ĠrÃ¥dande 183425
eby 183382
yrkan 183381
ĠForsberg 183369
ĠGÃ¶ta 183356
ance 183354
Ġtiotal 183347
Ġbyggnads 183315
Ġundra 183306
Ġomgivning 183295
Ġgrekiska 183281
Ġspelaren 183278
ĠvÃ¤rnplikt 183237
information 183236
ffe 183218
Ġtals 183204
Ġfackliga 183182
Ġvass 183116
inter 183109
ĠbehÃ¶vt 183090
ĠsÃ¶derut 183069
ĠChampions 183026
ĠMod 183023
Ġlinjer 182974
okal 182969
kal 182913
Ġfattat 182900
Ġbolagen 182891
ruppen 182863
Ġsvenske 182857
ĠgenomfÃ¶rt 182842
Ġsjunker 182831
mera 182755
Ġuppges 182740
ĠklÃ¤nning 182724
Ġyttersta 182716
ĠtÃ¤nkbara 182710
ĠskrÃ¤mmande 182700
ĠUnga 182698
ĠÃ¥rskurs 182671
ĠVarberg 182665
Ġtolkning 182480
Ġvarannan 182472
ĠtrÃ¶tta 182395
ĠBell 182391
ckar 182289
sats 182280
sliga 182244
ĠpÃ¥gÃ¥tt 182219
Ġdecennier 182217
Ġtackar 182213
Ġinsikt 182201
ĠHov 182152
yer 182126
sbeslut 182121
Ġinnefattar 182081
ĠarmÃ©n 182078
Ġytor 182073
ĠTrans 182057
direktÃ¶r 182055
Ġetablerade 182014
ĠOmgivningarna 181998
oms 181995
ĠgÃ¥rdagens 181962
Ġbaka 181961
sÃ¥tgÃ¤rder 181927
ikerna 181890
Ġkategorin 181861
ĠHuset 181852
fy 181826
Ġsky 181805
iserat 181773
Ġvik 181757
Ġkonkurrensen 181740
Ġgranne 181720
ĠUngefÃ¤r 181712
ani 181653
ĠfÃ¶rvalt 181643
Ġagerande 181638
ĠNov 181600
Ġvilar 181590
ĠnÃ¤mnde 181551
hlin 181483
Ġap 181462
ĠstrÃ¥ 181447
Ġklokt 181422
ĠLidingÃ¶ 181420
risen 181397
familj 181389
Ġ1966 181386
ĠInd 181353
ĠAF 181346
Ġgran 181334
Ġfamiljens 181272
Ġkonstant 181258
ĠnÃ¤mner 181233
ĠInt 181212
Ġkonsekvenserna 181197
ĠKvinna 181118
Ġblyg 181116
Ġstunder 181113
ĠsÃ¤msta 181079
ĠGustavsson 181069
ĠflÃ¶g 181062
Ã¥nger 181051
Ġavsedd 181004
vig 180988
hÃ¥lla 180986
ĠExempel 180983
skjut 180971
Ġanklag 180933
ĠvÃ¤ckte 180926
Ġjakten 180918
Ġteatern 180897
ĠLÃ¶rdag 180865
ĠrÃ¶tter 180822
fÃ¶rteckning 180794
ĠnyanlÃ¤nda 180743
rÃ¤der 180742
Ġagerar 180705
Ġsomna 180700
Ġhalvtimme 180677
ĠtjÃ¤nstgÃ¶ring 180620
ĠAL 180606
ĠLinus 180573
Ġvariera 180538
ĠRef 180528
ĠjÃ¤kla 180516
kommande 180469
ĠId 180468
Ġcent 180364
Ġrabatter 180357
ĠJakob 180356
utvecklingen 180341
ĠBak 180302
ĠbehÃ¶vas 180290
Ġfriidrott 180289
orden 180287
Ġros 180274
bandet 180250
ĠKolla 180239
Ġfarmor 180228
ĠterrÃ¤ngen 180220
ĠAntal 180217
Ġgalet 180151
ĠstrÃ¤ckan 180143
Ġpian 180073
ĠKommunal 180072
rep 180067
atter 180018
Ġkanaler 179990
ĠingÃ¥ng 179981
ĠavslÃ¶jar 179945
koll 179931
ĠSi 179923
bba 179887
Ġdubb 179856
ĠfÃ¶raren 179840
oppa 179837
Ġarrangerar 179821
Ġtittat 179752
ĠâĻ¥ 179736
ĠhÃ¤nvisar 179730
ĠEnergi 179688
jet 179681
gjord 179646
ĠVia 179607
uru 179595
jus 179565
Ġfoton 179547
ĠVil 179525
ĠClub 179511
OK 179501
Ġgenerationer 179494
ĠkÃ¥t 179483
ĠAR 179476
Ġbada 179424
itter 179392
ĠGreta 179387
ĠhÃ¤mtar 179370
hund 179367
Ã³ 179345
Ġkatter 179317
Ġbygglov 179241
Ġpsykiska 179207
Ġregional 179204
derar 179152
Ġmodernt 179143
Ġgavs 179131
Ġtillvaro 179045
ĠSj 179002
ĠTiden 178988
ĠskÃ¤rm 178986
Ġcup 178981
Ġrekommenderas 178966
ĠUkraina 178878
ĠArm 178843
Ġkliva 178831
ĠBirger 178829
kamrat 178818
Ġjordbruksmark 178811
Ġeg 178804
pos 178801
ake 178767
ĠJer 178759
ĠDU 178752
fÃ¶rbrukning 178748
Ġtidningarna 178743
Ġprins 178689
ĠFastighet 178677
atch 178662
Ã¤rna 178662
ĠavlÃ¶ 178656
ĠMc 178614
Ġengagerad 178587
Ġmult 178582
ĠSitter 178575
ĠframtrÃ¤dande 178563
ORT 178560
Ġnoggrann 178559
lagda 178520
Ġintegritet 178430
ĠUtbildning 178417
service 178411
frÃ¥gorna 178376
Ġkommuns 178353
Ġlikadant 178323
Ġ1962 178317
ĠslÃ¤nga 178302
Ġtoalett 178271
sfrÃ¥gor 178269
ĠinnanfÃ¶r 178225
Ãĥ 178209
gav 178200
Ġsattes 178185
Ġtysta 178175
stru 178156
Ġcoach 178152
ĠvÃ¤ggarna 178128
Ġugn 178110
ĠLÃ¶f 178103
Ġjulklapp 178099
ssÃ¤tt 178067
Ġsomnade 178056
Ġwe 178037
Ġuttala 178027
Ġdrama 177992
Ġeu 177980
Ã¥da 177973
Ġtj 177960
smaterial 177958
boende 177916
Ġpet 177854
eng 177825
ĠkÃ¤rnkraft 177794
ĠlÃ¤nken 177775
Ġutrikesminister 177759
ĠTrelleborg 177749
Ġbrons 177748
ĠShe 177743
hÃ¶gskolan 177686
ĠPers 177683
gade 177656
ĠÃ¥rens 177644
Ġpresenterades 177594
Ġinspirerande 177580
ĠMatch 177566
ĠÂ¥ 177547
ĠSpr 177527
Ã¤ger 177465
Ġfilmerna 177455
Ġkolon 177454
Ġsvarat 177439
Ġspridning 177395
SM 177368
ĠSR 177309
Ġskjuter 177282
visa 177258
Ġfoder 177243
Ġvarning 177209
ĠutfÃ¶rs 177207
ivitet 177180
ĠavstÃ¥ 177179
Ġnorrut 177178
kul 177104
Ġyoutube 177044
fva 177041
Ġhistoriskt 177039
ĠFel 177013
ĠansÃ¶ka 177012
gu 177010
ĠÃ¤t 176999
Ġregioner 176977
Ġuttrycker 176965
ĠtrÃ¶ja 176947
Ġuppmanar 176935
fatt 176933
ĠdrÃ¶mmer 176933
Ġfarlig 176922
svik 176921
ĠRiktigt 176921
ĠRiksdagen 176888
IA 176885
ĠOrsaken 176879
underlag 176860
Ġhuman 176831
beck 176800
Ġhafva 176772
kostnad 176756
Ġkalkyl 176755
UD 176751
Ġvistelse 176748
ĠfÃ¶rmiddagen 176726
Ġvild 176726
sÃ¤tta 176709
ĠHemma 176707
Ġrymmer 176667
ĠSV 176657
Ġcam 176639
ĠTony 176614
Ġsalu 176608
upen 176557
ĠÃ¶versikt 176549
ĠSenaste 176546
Ġgrundades 176536
blÃ¥ 176520
ÃĸN 176518
Ġinvandring 176505
fisk 176455
ĠÃ¤ndrar 176439
Ġkulturen 176431
Ġstatsbidrag 176387
Ġblek 176362
ota 176359
Ġgrova 176341
ĠbestÃ¤md 176317
MA 176275
Ġhov 176252
Ġrysk 176225
ĠhÃ¶rnet 176203
ĠbÃ¶rsen 176168
Ġfun 176158
ĠkÃ¶ttet 176130
ĠOhlsson 176121
Ġaction 176084
ĠUN 176070
ĠJoel 176058
komna 176053
Ġlokalerna 176030
ĠensamstÃ¥ende 176006
Ġsymtom 176005
ĠbedÃ¶mningen 175987
ĠnÃ¶ja 175985
ĠVÃĦ 175975
Ġhanterar 175907
Ġmedverkan 175876
Ġbek 175843
Ġlevereras 175820
Ġstorlekar 175814
Ġauktion 175700
ATION 175695
Ġfront 175695
Ġelden 175686
Ġkriminella 175669
Ġtok 175665
aser 175629
Ġuppfylla 175618
Ġofficiellt 175596
Ġegenskap 175572
Ġkvinnors 175570
ĠFot 175554
Ġallas 175552
ome 175544
ĠhÃ¤romdagen 175496
Ġklasser 175467
con 175459
Ġarena 175443
Ġprofessionell 175443
Ġkup 175434
skans 175408
Ġkontinuerligt 175401
ĠNU 175388
ĠsÃ¤nda 175364
Ġchatt 175362
ĠHÃ¤lsing 175353
Ġljust 175301
Ġrevolution 175294
Ġhotade 175262
Ġhelvete 175207
ĠBrott 175162
fi 175148
prÃ¥k 175139
ĠtÃ¥lamod 175124
umm 175036
ĠTrollhÃ¤ttan 175034
ign 175033
Ġfantasi 175031
ming 175030
Ġmeddelas 174939
ĠomvÃ¤rlden 174938
ÃĦL 174928
seende 174883
ĠPortugal 174872
ĠBod 174862
Ġavsedda 174850
Ġbussar 174848
ĠPal 174817
Ġtunna 174813
ummer 174774
Ġtroligtvis 174691
skorna 174689
ĠNamn 174689
ĠSlutligen 174685
Ġfritids 174664
ĠMotor 174655
ebo 174637
ous 174606
husen 174590
Ã¤renden 174562
ĠTio 174505
slÃ¥n 174499
Ġtemperaturen 174477
Ġkastar 174471
Ġ1963 174450
Ġtryckt 174445
Ġstatistiken 174439
Ġskylt 174437
ĠBÃ¤ck 174421
Ġledigt 174383
fÃ¶retagen 174371
Ġredskap 174370
Ã¼ 174369
ĠintrÃ¤ffat 174345
Ġstorstad 174301
ĠfÃ¶rvÃ¤ntar 174261
Ã¥ker 174251
handlare 174244
stÃ¥ende 174216
ĠKont 174173
Ġfet 174169
ĠIl 174146
Ġelegant 174121
ĠbostadsrÃ¤tt 174117
Ġpool 174113
Ġstav 174103
ĠsÃ¥nger 174083
otta 174064
Ġsexuellt 174059
Ġarkitekt 174047
kommer 174023
ĠFi 174014
Ġkvarter 173993
ĠPerfekt 173950
ĠÃ¶kningen 173875
ĠhÃ¥llbart 173874
ĠPontus 173854
Ġolyckor 173801
regler 173781
Ġsannolikhet 173766
edal 173733
xa 173731
ELL 173706
ĠAldrig 173663
ĠMill 173653
ĠMass 173648
sky 173644
ĠATT 173615
ĠCharles 173588
Ġframsteg 173530
ĠAlingsÃ¥s 173524
rapport 173520
bolagen 173498
Ġdes 173423
ĠupphÃ¶r 173419
Ġbeloppet 173397
Ġkulturella 173389
Ġtrist 173386
slund 173352
Ġutst 173297
Ġkrona 173295
ĠHÃ¶ 173292
Ġkansli 173288
ĠAng 173260
Ġfix 173238
lÃ¤ggningar 173237
cken 173200
Ġpartiledare 173181
skomm 173162
Ġneutral 173133
ĠBest 173129
sidor 173107
Ġkommunstyrelsen 173087
ĠÃĸstersjÃ¶n 173056
ĠfÃ¶rlÃ¤ngning 172956
Ġoroliga 172936
ĠSusanne 172914
Ġsli 172907
ĠUlrika 172864
ĠWi 172811
ĠfrÃ¥nvaro 172781
Ġknull 172748
Ã¶rt 172736
oren 172723
Ġvida 172714
ĠfullstÃ¤ndig 172696
Ġpacka 172686
Ġbetonar 172664
bu 172635
OG 172628
ĠarbetslÃ¶sheten 172626
rÃ¤k 172621
Ġorkester 172614
Ġ1948 172612
Ġfolkets 172611
ĠPrivat 172603
PS 172594
ĠanmÃ¤lt 172594
ĠjÃ¤mt 172490
ĠLouis 172474
Ġkoncernen 172463
Ġkoldioxid 172428
Ġreferens 172359
ĠtillÃ¥tet 172329
ĠKrist 172324
ĠBeslutet 172322
Ġadministrativa 172281
bla 172278
stÃ¤lle 172278
ĠSmith 172275
ĠBerglund 172237
politiska 172221
Ã¤nner 172211
Ġfog 172207
ĠÃ¶vrig 172197
Ġmsk 172176
anc 172141
ĠWal 172140
byggd 172112
ĠfÃ¶rlusten 172106
Ġgranska 172095
cket 172068
Ġgal 172049
Ġbru 172037
Ã¶jt 171963
Ġrelevant 171960
stugan 171910
Ġstadsdel 171870
elle 171850
ĠSkolan 171839
Ġklimatzonen 171790
Ġenskilt 171786
Ġsorter 171780
ycket 171767
ĠkvÃ¤llar 171766
kommen 171754
ĠvÃ¤rdefulla 171727
ĠtillgÃ¤nglighet 171705
ĠutlÃ¤ndsk 171675
Ġskinn 171645
ĠÃ¥tervÃ¤nder 171622
ĠbedÃ¶m 171591
dotter 171588
ĠhÃ¶jer 171534
Ġslutspel 171505
gt 171495
Ġvanligare 171488
ĠhÃ¤ 171473
Ġavvikelser 171437
ĠBryssel 171432
ĠOttawa 171390
Ġsporten 171356
Ġfungerat 171289
ital 171265
ĠVÃ¤lkomna 171234
Ã¤tter 171229
imer 171184
aturen 171179
ĠÃĸn 171169
Ġarbetsplatser 171164
Ġlyder 171141
ĠSkall 171106
borgs 171096
ĠBob 171075
Ġprat 171073
ĠJimmy 171071
Ġskyddar 171044
ĠkafÃ© 171016
tjÃ¤n 171007
ĠErnst 171006
Ġtillvaron 171004
ĠBosse 170996
ĠhÃ¶gskola 170914
ĠOd 170890
ĠhÃ¤lsar 170886
Ġlyckad 170886
ĠlÃ¤der 170883
ĠÃ¥terfÃ¶rsÃ¤ljare 170866
Ġproducerar 170845
Ġprognos 170841
idens 170834
Ġuppfattas 170828
Ġkontors 170822
ĠOlofsson 170821
Ġomgivningen 170806
ĠSystem 170793
ĠtÃ¤lt 170788
rÃ¤des 170736
Ġfotbolls 170736
Ġprocesser 170677
Ġjudar 170669
Ġmedicinsk 170659
Ġdeltid 170635
Ġtvinga 170584
Ġkommenterar 170572
ĠCarina 170551
gan 170537
Ġriktade 170537
steknik 170489
agg 170484
Ġsann 170458
YS 170450
hÃ¥l 170406
ero 170400
Ġunderl 170392
ĠfÃ¶rsamlingen 170376
naderna 170367
Ġqu 170367
splatser 170350
Ġproposition 170336
hÃ¶jd 170331
Ġond 170316
Ġklassiker 170301
Ġkil 170300
bys 170295
ĠanstÃ¤lla 170255
Ġkoppar 170234
Ã¤ss 170217
ĠTvÃ¤rtom 170203
Ġsemifinal 170202
nÃ¤mnden 170182
Ġborg 170118
Ġtvungna 170111
Ġonda 170101
ĠGÃ¤r 170095
ĠPS 170088
ĠfÃ¶rÃ¤ldra 170035
ĠÃ¶ppnat 170017
ĠstÃ¶tta 170004
Ġfeber 169979
ĠintrÃ¤ffar 169958
Ġrym 169956
Ġreaktioner 169934
vÃ¤rld 169923
Ġokt 169921
Ġskrevs 169900
ĠKurt 169869
ison 169863
styrka 169860
cell 169830
mÃ¤staren 169822
ĠBas 169810
ĠÃ¶verst 169785
Ġbifall 169770
ĠslÃ¤ktingar 169712
ĠtrÃ¤nade 169708
ĠSÃ¶r 169696
Ġprofessionella 169689
ĠKarlshamn 169646
ĠKram 169645
ĠfÃ¤rska 169611
ĠEgypten 169603
ĠBesÃ¶k 169589
savdelning 169556
Ġdoktor 169548
Ġkandidat 169540
hu 169514
Ġskivan 169513
Ġfirade 169506
Ġplockade 169503
ĠRu 169467
Ġsammant 169464
ĠskÃ¥l 169456
Ġoptim 169446
ĠlÃ¶sas 169424
ĠfÃ¶ras 169422
ĠfÃ¶rdubb 169399
Ġkrydd 169393
Ġmotorn 169386
vÃ¤x 169374
ĠvÃ¤lkÃ¤nda 169349
ĠOj 169318
Ġkvaliteten 169286
Ġjordbruket 169284
Ã¤mnen 169279
Ġordentlig 169275
Ġmestadels 169234
ĠmisstÃ¤nker 169230
ĠpremiÃ¤rminister 169226
Ġkapten 169216
glas 169214
Ġsommarens 169211
Ġfy 169172
ĠfÃ¶rtr 169102
ĠanlÃ¤nde 169092
Ġdroger 169036
personal 169030
ĠohÃ¤lsa 169013
Ġry 169003
ĠnÃ¤san 168997
ĠKarolinska 168987
Ġanledningar 168985
Ġspring 168979
ĠhÃ¶j 168954
icks 168936
gad 168925
Ġkonsul 168921
Ġgarn 168910
kant 168906
Ġtrettio 168892
Ġutred 168891
insats 168872
Ġguldet 168840
Ġgiven 168772
ĠhÃ¤vdade 168756
fter 168739
lings 168723
Ġservic 168691
ĠBand 168687
ĠtÃ¶m 168685
Ġgilla 168676
ĠsÃ¥ldes 168664
Ġsta 168610
Ġanonym 168592
ĠfÃ¶ga 168587
ĠWester 168580
Ġtele 168571
Ġsajten 168496
ĠVietnam 168463
Ġfotbollen 168462
ĠKnut 168450
lika 168446
kontakt 168439
Ġbry 168430
cia 168382
ĠBehÃ¶ver 168366
Ġtypiskt 168340
skÃ¥p 168338
ĠanstÃ¤ll 168335
komsten 168334
ĠlÃ¥s 168334
Ġbedrivs 168326
ĠExtra 168324
ike 168322
Ġpara 168289
ĠblÃ¥ser 168287
ĠNykÃ¶ping 168269
Ġkross 168269
Ġgrunder 168262
Ġmobiltelefon 168259
andel 168214
skommittÃ©n 168200
ĠBÃ¶r 168161
tagen 168130
Ġref 168123
ĠbelÃ¤get 168095
visningar 168079
Ġattityd 168076
ĠTryck 168071
Ġexperiment 168039
ĠSkara 168035
spart 168033
atisk 168024
Ġdemokrat 168019
hjul 167981
Ġbaseras 167980
ĠfÃ¶rekom 167970
stjÃ¤nster 167940
Ġklock 167914
Ġgatorna 167882
ĠKlass 167865
ockar 167851
igheterna 167830
ĠIkvÃ¤ll 167789
ammant 167766
ĠavgÃ¥ng 167757
Ġgestalt 167717
ĠSjÃ¤lva 167704
ĠHum 167681
Ġdej 167679
Ġkarta 167667
arden 167663
ĠkÃ¤nn 167649
uden 167646
Ġfiber 167645
ĠvÃ¤sentliga 167636
Ã¥gen 167582
ĠprÃ¤ster 167563
ologin 167560
ĠHÃ¥ller 167527
ĠfÃ¶rebygga 167521
ĠmÃ¶rker 167501
systemet 167400
ĠWien 167393
juka 167346
Ġpeka 167303
idningen 167294
ĠfÃ¶rmedla 167278
ĠkÃ¤nsl 167239
ĠKÃ¶n 167231
anger 167220
stuga 167173
varna 167161
Ġinledning 167154
ĠkonstnÃ¤ren 167131
ĠvÃ¥ningen 167126
Ġrykte 167118
ĠfjÃ¤rilsart 167112
log 167091
Ġporrfilmer 167062
ĠMotala 166984
vetenskap 166981
ht 166977
Ġrimlig 166975
ĠuppstÃ¥tt 166965
ĠPosted 166945
Ġlju 166936
ĠLundgren 166923
ĠfÃ¶rv 166906
rt 166889
Ġjuridiska 166884
ĠLÃ¤n 166854
ĠBrynÃ¤s 166793
Ġhehe 166748
Ġmamman 166747
lÃ¤ggas 166745
fond 166740
ĠPension 166733
Ġkonserter 166707
ĠMEN 166688
vand 166677
Ġenskilde 166669
Ġuppgav 166658
sministern 166623
ĠbÃ¤nk 166612
ose 166607
Ġmotverka 166586
ĠInge 166579
Ġbarfota 166564
anlÃ¤ggning 166556
andena 166527
Ġkommunicera 166514
Ġnaz 166508
Ġpsykiskt 166507
ĠCafÃ© 166485
Ã¤tten 166482
Ġfunderat 166456
OO 166452
ĠMaja 166421
ĠSjuk 166385
ĠDela 166368
ı 166353
Ġgymnas 166325
Ġansett 166287
pad 166276
pas 166253
ĠnÃ¤rings 166251
Ġarrangeras 166246
jade 166206
ĠuppmÃ¤rksamma 166201
tagande 166163
Ġdirektiv 166121
Ġprop 166102
Ġhemm 166074
Ġbom 166057
skada 166036
Ġbostaden 166004
Ġdeklar 165996
Ġkoncentration 165977
ĠlÃ¶nen 165971
Ġpri 165958
ĠBetrÃ¤ffande 165953
ĠOff 165937
ĠTour 165866
tjÃ¤nst 165783
ĠLac 165777
Ġnoggrant 165764
Ġ1958 165744
Ġturneringen 165727
Ġbegravnings 165717
Ġcan 165711
ĠarmÃ© 165635
ĠSlott 165624
Ġriks 165623
oder 165621
Ġsemestern 165588
Ġpastor 165564
Ġvarianter 165522
ĠKnull 165517
ĠgenomfÃ¶rande 165514
enterna 165467
ĠLiverpool 165430
Ã¥ten 165415
Ġmellanrum 165402
ĠWar 165355
Ġgirl 165342
Ġnyans 165341
ĠavlÃ¶ningsdag 165328
Ġbristen 165327
ĠÃĸland 165312
Ġorten 165242
ĠstÃ¤lldes 165239
Ġexisterar 165237
dy 165234
Ġleker 165211
ĠErbjudandet 165172
ĠAlltid 165164
ĠÃ¤rligt 165155
Ġslit 165130
ĠLina 165127
ĠAf 165106
Ġprojektledare 165090
Ġstuga 165073
rafik 165054
Ġlagstiftningen 165042
Ġwebben 165029
Ġbastu 165021
ĠMay 165013
Ġavslag 164970
vel 164927
ĠKenneth 164899
spolisen 164879
Ġkontroller 164874
Ġpall 164874
Ġmeters 164861
ĠnÃ¥d 164848
teck 164831
Ġ1947 164828
ĠErotisk 164758
ĠSha 164751
Ġblogga 164729
ekonom 164716
ĠJÃ¤mfÃ¶r 164715
Ġsiktar 164698
Ġlogga 164684
ĠVart 164682
ĠLar 164679
Ġaluminium 164641
Ġflickorna 164614
ĠmÃ¤sterskap 164597
ĠAh 164577
ĠGillar 164562
klassen 164559
ĠAc 164527
Ġrem 164504
ĠfÃ¶rvisso 164502
Ġnjut 164488
ĠFÃ¶rr 164446
Ġfyllda 164444
Ġbidrog 164431
ĠvitlÃ¶k 164411
ĠutvÃ¤rdering 164381
otte 164374
vind 164342
Ġpassion 164321
Ã¤nkt 164317
delsen 164314
stjÃ¤nsten 164288
Ġarmar 164288
ĠBarbro 164237
ĠSvan 164230
skyrkan 164212
Ġsem 164189
ĠHitler 164187
Ġplatserna 164170
ĠÃ¶kande 164159
vakten 164154
Ġdumt 164142
ĠNY 164129
Ġplockar 164119
ĠLokal 164107
Ġkillen 164084
Ġsek 164075
svÃ¤g 164056
Ġskriker 164056
ĠÃ¶verklag 164044
ĠfÃ¶ret 163999
insatser 163991
Ġ1961 163974
ĠtÃ¤nd 163973
ĠVA 163939
ĠAnita 163936
Ġsmakar 163916
ĠsÃ¤kerheten 163916
Ġvardags 163866
Ġresonemang 163865
yng 163864
Ġslapp 163765
Ġmikro 163732
ĠmÃ¶jliggÃ¶r 163728
ĠMFF 163698
ĠAgneta 163693
Ġstater 163686
Ġklaga 163667
Ġkanten 163662
rim 163651
Ġaccepterar 163643
ĠhÃ¤ftigt 163620
ĠplÃ¥g 163604
gÃ¥tt 163591
Ġalternativa 163587
Ġproffs 163570
Ġradion 163555
onger 163538
Ġraden 163470
ĠpjÃ¤s 163456
Ġversionen 163452
Ġberodde 163435
Ġfrivilligt 163387
Ã¸ 163363
ĠberÃ¤k 163360
kla 163333
Ġaxel 163309
Ġsmaka 163295
ĠHit 163292
Ã¶f 163288
ĠrÃ¤ntan 163273
DA 163240
ĠReuter 163178
ĠHAR 163174
Ġdryg 163154
ĠRÃ¶d 163137
Ġtolka 163120
ĠkvÃ¤llarna 163084
Ġlandsbygd 163074
ĠskÃ¶rd 163074
Ġstudien 163015
Ã¤ge 163006
undervisning 162983
Ġflytande 162978
Ġgren 162970
Ġsla 162939
Ġtrycket 162937
ĠInternationella 162913
sby 162888
ĠJAG 162831
Ġdefinition 162817
Ġantas 162778
ĠgrÃ¤v 162767
HL 162729
Ġbetrakta 162715
ĠDar 162697
Ġansluta 162691
organisationer 162681
Ġtendens 162642
ĠrÃ¥varor 162614
fÃ¶rsvar 162604
Ġflaska 162547
Ġhustrun 162532
Ġdomaren 162530
ki 162505
anson 162502
rus 162442
fÃ¶rslaget 162434
tagna 162427
Ġserver 162411
elius 162389
ĠBan 162381
ilen 162377
edan 162354
Ġkamrater 162348
ĠkÃ¶pare 162347
Ġ1939 162307
Ġantag 162285
ĠKh 162238
ĠklÃ¤derna 162221
ornas 162205
usten 162205
Ġrus 162182
Ã¤nkning 162170
ission 162153
Ġfeb 162152
atorer 162134
Ġuppf 162111
ĠStra 162036
Ġslutsatser 162034
ĠUS 162027
ĠtillgÃ¤ngligt 162007
garanti 161999
Ġsakna 161999
Ġfullkomligt 161990
iler 161989
Ġmorfar 161981
Ġgymmet 161973
Ġsmyg 161966
ĠSvD 161962
Ġflott 161921
ĠseriÃ¶st 161908
Ġvillkoren 161908
frid 161877
bÃ¶r 161871
Ġavd 161860
Ġsinne 161858
Ġmisst 161846
Ġten 161845
Ġbre 161770
shand 161768
Ġrasism 161765
oni 161743
Ġingredienser 161722
Ġskym 161718
ĠnÃ¶je 161667
Ġprotein 161664
ĠgodkÃ¤nnande 161660
ĠfÃ¶rdelning 161644
Ġskar 161625
ĠhÃ¥llits 161575
Ġtorra 161530
Ġdrivit 161474
burg 161452
ĠBrom 161415
Ġbiten 161398
ĠSid 161393
ĠTrafik 161343
ĠSpar 161342
Ġweb 161336
Ġupplaga 161335
Ġgata 161310
ĠlÃ¥tsas 161309
analys 161295
ĠJe 161279
Ġseries 161261
Ġbevisa 161255
uell 161252
sbidrag 161249
yren 161242
ĠBred 161239
ĠkÃ¤nsliga 161224
hÃ¥llas 161194
Ġorka 161177
Ġhas 161120
dt 161111
Ġru 161101
Ġtuffare 161068
ĠWilhelm 161054
Ġbranscher 161045
ĠMexiko 161032
ĠSvea 160992
avdelningen 160984
amer 160979
Ġ105 160957
Ġlill 160951
Ġinleder 160934
Ġbrud 160917
Ġbla 160899
Ġkategori 160885
Ġuteslutande 160795
Ġkreativa 160786
sprodukter 160690
snÃ¤mnd 160688
ĠframfÃ¶rde 160670
ĠDans 160653
Ġskur 160648
rock 160637
inger 160630
parti 160619
ĠHjalmar 160611
Ġopera 160601
Ġnormer 160510
ĠCentrum 160491
ĠÃ¤ndrat 160475
Ġkartan 160450
handlingarna 160405
ĠfÃ¶rbÃ¤ttras 160386
jk 160385
Ġsnick 160375
Ġbetalat 160364
ĠFyll 160344
ĠGlas 160285
PA 160273
Ġplattform 160265
ĠTeam 160256
ĠLen 160245
ines 160228
ĠskÃ¥p 160206
Ġgymnastik 160199
Ġpropositionen 160171
ĠEt 160157
betyg 160131
Ġresur 160130
Ġlyfte 160127
Ġideal 160110
ĠÃĦlskar 160102
byte 160098
feldt 160089
ĠfÃ¶rmÃ¶genhet 160067
Ġvitamin 160046
ĠFinn 160035
Ġnationellt 160017
ĠFÃ¶rsÃ¶k 160011
ĠupprÃ¤tthÃ¥lla 160000
sj 159998
ĠspÃ¥ren 159968
Ġdigitalt 159962
ĠtrÃ¤n 159956
ĠfortsÃ¤ttning 159943
atte 159911
kÃ¶ 159898
Ġsuger 159873
yds 159851
ĠNordic 159806
Ġfinger 159798
Ġorsaka 159750
Ġtyngd 159708
Ġredaktion 159677
71 159643
ical 159580
ĠseriÃ¶sa 159545
Ġcomeback 159539
ĠfÃ¶rklarat 159527
ito 159520
ĠEv 159514
ĠTop 159508
Ġbonde 159508
ĠbehÃ¶righet 159496
45 159487
ĠutstÃ¤llningar 159451
sma 159440
ĠBern 159372
vning 159366
Ġmedborgarna 159364
Ġmannens 159363
ĠPosten 159352
ĠDÃ¶d 159317
ĠBef 159314
Ġrulla 159299
itu 159290
ĠfÃ¶rvaring 159282
ĠTÃ¤nkte 159254
Ġuppenbar 159249
Ġarbetarna 159154
Ġutnyttjar 159148
Ġaspekter 159115
Ġhappy 159099
ĠRio 159097
ĠpojkvÃ¤n 159095
Ġknep 159085
Ġkortet 159046
Ġocksa 158991
vÃ¤xt 158970
Ġdetaljplan 158960
Ġsekretess 158937
ĠPhilip 158921
com 158901
sfÃ¶rbund 158897
ĠMinst 158888
Ġbredare 158820
Ġrutan 158816
ents 158800
Ġpojkarna 158775
rass 158772
Ġsuccessivt 158761
Ã¥nd 158732
Ġfisken 158727
Ã¤mnas 158695
miljÃ¶ 158694
ĠmÃ¤rktes 158660
ytan 158644
Ġslottet 158634
ĠÃ¶verlÃ¥t 158616
ĠApple 158607
slÃ¤get 158599
Ġtystnad 158592
Ġlille 158571
ĠMatchen 158562
Ġpump 158529
Ġlagret 158523
Ġpatienterna 158518
ĠhalvÃ¥ret 158498
Ġ1956 158484
Ġmigration 158482
ĠVas 158481
ĠlikasÃ¥ 158479
Ġsvagt 158427
urg 158422
Ġbot 158419
Ġlivstid 158385
ĠbortgÃ¥ng 158372
ĠmÃ¥ltid 158357
ĠGrattis 158339
Ġfrivilliga 158313
lex 158305
Ġglobal 158281
Ġpasserat 158278
ljus 158264
ĠTjÃ¤nsten 158252
Ġnerv 158247
ĠAle 158228
iti 158222
Ġvackraste 158221
Ġlagets 158219
ĠhÃ¤rifrÃ¥n 158190
ĠBay 158175
lack 158171
papper 158159
ĠEss 158156
dig 158153
Ġstarkaste 158139
last 158127
ĠskrÃ¤p 158127
Ġhistorisk 158126
ĠbyrÃ¥ 158116
Ġjeans 158108
uella 158098
ĠSollentuna 158093
ĠstrÃ¤ng 158089
examen 158082
Ġarabiska 158042
Ġoppositionen 158029
Ġmill 158027
filmen 158016
ĠCirka 157964
FS 157874
ĠtÃ¤nkande 157873
Ġanda 157865
ĠWindows 157855
ĠnÃ¤mn 157855
ĠApp 157830
ĠMet 157826
Ġhemlig 157810
ĠNina 157778
lav 157776
Ġstugan 157769
Ġang 157743
Ġprotester 157737
ĠbÃ¶nder 157673
stÃ¤m 157648
Ġskrivelse 157643
Ġengagera 157641
ĠfÃ¶restÃ¤lla 157614
Ġsumman 157614
ĠTog 157582
Ã¥ra 157545
ĠÃĸstergÃ¶tland 157516
Ġhundarna 157513
kam 157511
hÃ¥ller 157501
Ġbuller 157478
Ġmilf 157451
Ġlugnare 157450
ĠÃ¤gnat 157443
ĠMilj 157427
Ġutbilda 157425
ĠMÃ¥ng 157421
ĠfÃ¶rsk 157420
Ġavskaff 157415
Ġudda 157411
agd 157377
Ġljudet 157377
Ġverkan 157371
ĠJÃ¤mtland 157352
Ġlagts 157316
ĠÃ¶vning 157308
edda 157226
ĠsÃ¤ljas 157222
Ġkaff 157201
Ġabsoluta 157183
veckan 157170
ĠTelia 157146
Ġnedre 157119
ĠfÃ¶rn 157076
Ġveder 157059
Ġtjocka 157058
Ã¤nkningar 157039
slÃ¶st 157028
smÃ¶jligheter 156955
Ġtillverkas 156949
stjÃ¤rnan 156919
sreg 156903
ĠAlbin 156892
Ġtidnings 156882
ĠfÃ¶da 156861
ĠSandra 156840
ĠÃ¶pp 156818
ĠlÃ¶v 156803
Ġ031 156745
Ġforn 156731
Ġlovande 156727
tog 156719
ĠNÃ¤ssjÃ¶ 156713
pengar 156684
ĠBab 156683
ĠhÃ¤rmed 156672
flyttning 156659
ART 156656
ĠKristian 156653
ĠVerksamheten 156610
ĠNordiska 156582
ĠosÃ¤kerhet 156547
delser 156537
Ġsmycken 156519
Ġinstallation 156509
EK 156508
kontroll 156496
Ġspik 156486
ĠJohnny 156470
Ã¤rd 156460
sskatt 156450
sfÃ¶rsÃ¤kring 156427
Ġordnar 156392
Ġspelen 156368
Ġstorleken 156359
sarbetet 156328
ĠTyp 156322
ĠovanstÃ¥ende 156261
skande 156237
Ġrit 156222
ĠsÃ¶ner 156171
nt 156155
fon 156148
hÃ¥llare 156141
cen 156133
Ġherre 156105
ĠvÃ¤lfÃ¤rden 156085
ĠbrÃ¶derna 156052
ĠSilver 156021
Ġku 156008
ĠEj 155999
Ġframtidens 155963
Ġsektor 155958
ĠfÃ¶tterna 155940
ĠFalkenberg 155924
uset 155916
amn 155847
Ġjaga 155846
ĠmÃ¤rkliga 155812
ĠutgÃ¥ngen 155781
Ġstigande 155755
derat 155724
ĠStreet 155720
ikat 155706
ĠHigh 155703
ĠÃ¤nd 155668
Ġbollar 155666
ĠKÃ¤r 155584
Ġsedermera 155555
agar 155546
ĠCat 155526
ĠSem 155483
Ġliggande 155483
fyllda 155470
Ġbyggd 155469
Ġspendera 155466
ient 155450
ĠRid 155440
Ġindividuellt 155437
ĠutsÃ¤tts 155394
ĠfÃ¶rvaltningen 155291
Ġvirus 155266
ĠuppgÃ¶relse 155238
ĠfÃ¶relÃ¤sningar 155214
Ġkoncern 155165
Ġerford 155086
Ã¤ndes 155069
ĠrÃ¥dgivning 155062
Ġladd 155058
Ġutforska 155047
ĠRonneby 155045
Ġdildo 155031
vard 155030
ĠdÃ¶dsfall 155029
ĠfÃ¶rbÃ¤ttringar 155017
Ġbetydelsen 155009
Ġbrutit 154997
Ġkvinno 154967
Ġtolk 154955
Ġnagon 154942
skil 154940
Ġvittnen 154923
Ġstuderande 154916
dde 154912
ĠlÃ¤ngtan 154906
ĠTon 154892
gÃ¶relsen 154889
skapen 154870
ness 154848
ĠstrÃ¤var 154844
ĠÃħmÃ¥l 154839
ĠWin 154831
skriven 154807
Ġtalen 154801
Ġbyxor 154796
Ġstrejk 154784
Ġupplevde 154772
Ġintyg 154771
Ġerotik 154744
lÃ¤kare 154713
ĠJosef 154688
ĠGick 154669
innor 154634
Ġpsalm 154607
ffa 154593
ĠÃ¶vert 154579
ĠÃ¥klagare 154548
ĠengÃ¥ng 154546
Ġtillverka 154545
rÃ¤dd 154542
dagens 154534
ĠVÃ¤sterbotten 154521
skat 154492
ĠvarpÃ¥ 154490
Ġuttryckt 154451
Ġinrikes 154437
Ġbag 154401
raft 154400
ĠflickvÃ¤n 154399
Ġtitlar 154387
ĠrÃ¶sten 154377
svenska 154367
spark 154346
ĠrÃ¤ddade 154332
rÃ¥den 154320
Ġpuss 154319
Ġkolleger 154295
ĠRun 154250
Ġavkastning 154249
ĠvÃ¥ran 154246
ĠfÃ¶rk 154215
ĠArlanda 154205
Ġbrottet 154193
Ġslogs 154172
Ġkons 154161
liknande 154160
Ġkyla 154090
ĠFinlands 154045
Ġkonflikten 154040
ĠflÃ¤sk 154015
Ġkna 153994
Ġlev 153960
slÃ¤ge 153955
Ġlar 153905
ĠfÃ¶ 153900
ĠMos 153885
ĠkvalitÃ© 153879
ĠProgrammet 153877
ĠnedÃ¥t 153826
ĠFe 153813
kets 153790
grens 153782
Ġkrediter 153758
Ġspis 153755
ni 153746
ĠtvÃ¥vingeart 153736
Ġhals 153711
Ġline 153701
verige 153696
Ġstimulerande 153688
iserar 153672
ĠTele 153670
St 153636
Ġexklusiva 153633
skrift 153632
ĠgenomfÃ¶rts 153608
idning 153594
Ġscener 153577
ĠPerson 153557
ĠbestÃ¤llt 153555
ĠProjektet 153543
ĠXxx 153537
ary 153527
ĠlÃ¥ngtid 153519
Ġreger 153516
ual 153513
ĠprÃ¶vas 153513
ĠTekniska 153510
Ġtoppar 153508
Ġavvakt 153468
produktionen 153441
Ġskrivs 153417
dÃ¶m 153399
Ġplagg 153392
kÃ¥ren 153380
Ġbygget 153352
ĠSjÃ¶berg 153346
Ġdylikt 153312
Ã¥gor 153303
ĠSÃ¶ 153276
sy 153243
ĠCla 153213
Ġfiskar 153210
ĠPersonalen 153187
ĠprÃ¶v 153186
bru 153171
ĠdÃ¶dades 153166
ĠSeger 153134
ĠrÃ¤ttegÃ¥ngen 153123
Ġmotionen 153117
ĠSÃħ 153106
ĠtillfÃ¤llig 153091
ĠDEN 153053
pade 153012
ĠKoka 153010
Ġ1946 153002
nÃ¤t 152998
ĠMona 152997
Ġhalvtid 152986
IM 152975
nÃ¤r 152975
Ġinstitutet 152962
26 152917
ĠberÃ¤tt 152910
ĠAllan 152884
Ġ1952 152871
ĠOh 152829
ĠAndre 152826
ĠlÃ¤gst 152818
Ġplacerad 152775
ĠSocialstyrelsen 152756
ĠIg 152739
porten 152731
ĠfÃ¶rnuft 152720
Ġlatin 152713
cc 152650
ĠEst 152650
ĠHr 152649
ĠVÃ¤x 152635
ĠrÃ¤ttvist 152623
Ġtillgodose 152599
oler 152589
Ġkokt 152583
ĠNyligen 152577
Ã¤llskap 152574
Ġbankerna 152572
bod 152549
Ġ~ 152507
vent 152496
Ġyngsta 152483
ĠErfarenhet 152454
ĠkÃ¤mpade 152450
Ġredovisar 152392
Ġutland 152389
SP 152366
debatt 152330
Ġrecensioner 152280
fot 152276
ordfÃ¶rande 152234
jÃ¤nster 152208
Ġsajt 152196
ĠfÃ¶rklaras 152192
ĠFur 152191
ĠblÃ¥tt 152156
ĠMorgan 152153
Ġvarg 152140
ĠElsa 152129
Ġreglering 152121
Ġvatt 152116
edd 152112
Ġinledande 152102
gÃ¶relse 152088
Ġtillverkare 152080
Ġdotterbolag 152063
ĠBilden 152059
ruk 152048
brÃ¶d 152036
Ġskydds 152029
krets 152024
ĠlÃ¶fte 152008
Ġgaller 152003
ĠPri 151993
fÃ¶ring 151981
ĠkÃ¤rnvapen 151972
ĠBru 151955
Ġavdelningar 151941
ĠnedanfÃ¶r 151937
ĠsÃ¤ndes 151927
Ġsenior 151926
Ġknappen 151907
fred 151899
ĠÃ¥terstÃ¤ll 151891
stÃ¤llen 151888
ect 151874
ms 151821
Ġdiskriminering 151819
butik 151800
Ġremiss 151792
rans 151781
Ġkliver 151740
Ġinsyn 151737
spolitiska 151734
mÃ¤t 151731
ĠLaget 151720
ĠfÃ¶rhoppningar 151718
ĠRisken 151714
EA 151690
ĠkÃ¶rs 151676
ĠUll 151651
Ã¤nger 151642
kunskap 151627
ĠcafÃ© 151619
onn 151609
SL 151569
ĠSur 151567
Ġ1959 151561
ĠasylsÃ¶kande 151527
sling 151451
ĠOlika 151448
ĠPernilla 151428
Ġhvad 151428
Ġvinnaren 151427
anskt 151426
Ġbandy 151404
ĠRickard 151392
ĠutfÃ¶rt 151389
Ġliber 151388
Ã¶na 151346
ĠSÃ¶ren 151338
ĠupptÃ¤cktes 151298
yckan 151293
CO 151292
ĠstÃ¤ndig 151292
ĠElfsborg 151252
ĠMÃ¤n 151237
Ġskede 151215
ilja 151196
Ġblodet 151193
Ġorsakar 151171
Ġ1944 151141
Ġstuderade 151140
Ġrevansch 151112
Ġvagnen 151112
ĠGri 151104
Ġknullar 151098
Ġamerikan 151093
Ġutredningens 151092
ĠEuropeiska 151078
Ġpla 151073
ĠSCB 151069
Ġpolska 151060
poj 151014
kÃ¶rning 151003
Ġanvis 150997
ĠKen 150973
ĠKlara 150947
ĠmotstÃ¥ndet 150945
Ġvittnar 150901
ĠJim 150888
Ġkop 150876
jÃ¶r 150863
dring 150856
OCK 150845
Ġlyckliga 150841
Ġutmana 150833
Ġmuskler 150825
ĠLjungby 150817
Ġbesvikelse 150805
Ġresulterade 150779
Ġuttalat 150767
ĠÃ¤tt 150767
ĠupplÃ¤gg 150766
slÃ¶shet 150765
ĠIV 150745
Ġlur 150731
ANS 150727
Ã¤mm 150697
Ġjour 150668
ĠutfÃ¶ras 150652
Ġali 150627
Ġrelationen 150616
lov 150609
Ġ450 150558
Ġtyngre 150539
Ġfelaktigt 150537
ĠbehÃ¶vdes 150536
laren 150528
Ġkreditkort 150513
ycka 150499
Ġ1957 150490
vattnet 150471
ĠNog 150471
ĠKra 150443
ĠSpring 150437
Ġkra 150397
ĠfÃ¶rstÃ¶ra 150389
Ġbortom 150378
ĠKarlskoga 150374
ĠsÃ¶ndagens 150371
fÃ¶rare 150342
Ġhastigt 150342
Ġfalska 150330
ĠSkÃ¶nt 150321
lige 150289
ĠanvÃ¤ndningen 150274
Ġutbudet 150214
Ġinflation 150204
Ġmuskel 150201
hÃ¤st 150171
pning 150150
Ġvalda 150136
ĠHA 150131
ĠpÃ¥gick 150131
rich 150103
Ġhoppats 150090
Ġstore 150090
Ġbegravning 150088
Ġtime 150078
Ġbilligaste 150060
ĠmÃ¥lsÃ¤ttning 150043
ĠÃ¥n 150036
Ġvardagsrummet 149987
ĠersÃ¤ttare 149986
ĠÃ¶vervakning 149964
Ġhanteras 149947
emi 149905
ĠNat 149851
aks 149830
ĠAffÃ¤r 149800
vas 149789
ĠÃ¶nskat 149773
Ã¶nen 149735
Ġtrenden 149735
ĠFolke 149722
Ġutrednings 149702
ĠIt 149694
Ġetablera 149692
Ġgalen 149664
Ġglobalt 149657
dragen 149624
kyrkan 149597
mÃ¶ 149597
Ġdegen 149579
ĠBÃ¤ttre 149570
ĠGrupp 149545
Ġservering 149545
Ġhands 149527
ektion 149511
ĠsÃ¤songens 149487
Ġutvecklade 149484
Ġpapp 149474
Ġrepar 149474
ift 149413
ĠChe 149405
steater 149402
innet 149397
Ġsort 149377
ĠbetÃ¤nkande 149363
Ġskaffat 149350
Ġmarknader 149341
Ġdiabetes 149326
ĠrÃ¶sterna 149319
ĠomdÃ¶me 149311
skontrakt 149307
ĠVasa 149303
ĠSandberg 149281
fartyg 149279
ĠChile 149271
Ġgods 149263
ĠARBET 149259
Ġutbildade 149256
ĠutgÃ¶rs 149221
Ġsignaler 149214
Ġsamvete 149190
ĠnÃ¤mns 149177
35 149171
Ġprotokoll 149145
itta 149134
ĠarbetssÃ¤tt 149112
ĠMigrationsverket 149103
Ġover 149101
havaren 149098
Ġsakerna 149094
Ġblind 149088
ĠslÃ¥s 149086
ĠResultat 149071
Ġinverkan 149066
box 149060
Ġekologiska 149049
Ġill 149049
Ġfestivalen 149027
ĠBoden 148965
ĠbrÃ¶der 148932
alternativ 148929
Ġelevernas 148926
fÃ¶rbud 148882
ĠfÃ¶rvÃ¤rva 148881
ĠerkÃ¤nt 148833
ĠrÃ¤ddningstjÃ¤nsten 148790
Ġproff 148781
ĠBoka 148748
din 148714
ener 148712
ynd 148700
hot 148684
ĠhÃ¥ 148673
Ġrecension 148657
ĠhÃ¶gra 148655
Ġmeddelanden 148632
Ġkapell 148606
Ġbekostnad 148586
Ġsnacka 148578
ĠSin 148532
ĠtillÃ¥ta 148523
Ġsmaken 148521
ĠvÃ¤ska 148503
ĠvarumÃ¤rke 148460
fÃ¶lj 148427
utredningen 148416
Ġrost 148412
Ġaug 148394
ĠRÃ¥ 148388
steatern 148349
anis 148333
iering 148325
Ġrepresenterade 148273
Ġbiskop 148266
Ġtan 148244
Ġjobben 148239
ĠrÃ¤knade 148239
ĠÃ¶vervÃ¤gande 148225
Ġbackar 148211
Ġkommunistiska 148193
ĠutvÃ¤ndigt 148171
tagare 148166
Ġ1955 148166
ĠGroup 148159
dena 148113
risten 148102
Ġodds 148092
shemmet 148038
ĠgrÃ¥ta 148021
ĠMars 148013
ĠberÃ¤kningar 148000
ĠKro 147992
fte 147944
Ġanordnas 147910
Ġminskad 147893
Ġuttalade 147893
ĠatmosfÃ¤r 147872
Ġabort 147866
Ġeffektivitet 147833
ĠAC 147829
ĠSandviken 147813
asing 147806
Ġgre 147801
ĠspÃ¤r 147798
zer 147794
ĠVÃ¤n 147791
Ġbildade 147737
ensis 147726
Ġbebis 147703
ĠtillvÃ¤xten 147691
savgifter 147683
nads 147681
Ġfarfar 147680
ĠsÃ¥s 147644
ĠLilje 147628
Ġstatligt 147604
ĠÃ¤mbet 147604
Ġstuderar 147557
asin 147538
ĠâĢĺ 147521
ĠupptrÃ¤der 147520
ĠfÃ¶rtid 147508
Ġtrapp 147473
Ġlack 147470
Ġbredband 147467
klÃ¤dda 147466
ĠsÃ¤nds 147460
Ġfabriken 147451
debut 147443
ĠhÃ¤l 147417
ĠOskarshamn 147411
ĠCaroline 147383
ĠvÃ¥ll 147382
ĠlÃ¤ngsta 147373
ĠDags 147365
ĠintrÃ¤de 147296
Ġsena 147257
TS 147231
ĠBeslut 147228
ĠVÃ¤stervik 147192
Ġbefar 147177
ĠNyg 147176
Ã¤nning 147103
ĠHu 147093
Ġskjuts 147069
Ġkommersiella 147022
Ġtrivas 147022
ĠMi 147020
Ġfaktiska 146981
sledningen 146973
Ġmenyn 146936
ĠKÃ¶pa 146898
ĠstÃ¤ngde 146878
ĠTrÃ¤dgÃ¥rd 146857
Ġsatsningen 146853
Ġminsann 146850
brand 146819
ĠhjÃ¤rna 146803
Ġkuvert 146797
yget 146763
ygga 146740
Ġgissa 146708
Ġindividen 146694
Ġregnet 146642
ĠtrÃ¤ng 146639
ĠmÃ¤rken 146625
Ġinsamling 146608
Ġregistrerade 146590
ĠNÃ¤s 146589
rak 146573
bildningen 146560
Ġsakkunniga 146546
Ġinneburit 146525
ĠDesign 146523
lÃ¤rare 146515
Ġfartyget 146515
Ġent 146476
Ġnorsk 146454
Ġstenar 146452
ĠSida 146431
gh 146416
ji 146412
ĠPop 146362
ĠBenny 146347
Ġtillskott 146335
ĠvÃ¤sentlig 146328
ĠbesÃ¶ket 146325
Ġfesten 146309
ĠLinn 146267
Ġnagot 146250
mis 146241
Ġenheten 146213
Ġsock 146206
ĠOkej 146201
Ġparlamentar 146172
ĠNorrtÃ¤lje 146138
enser 146126
Ġstreck 146109
ĠBrun 146100
Ġstatsministern 146093
ĠpÃ¥verkat 146076
IR 146057
ĠBus 146056
fotboll 146043
ĠJoseph 146039
ĠÃĸppna 146011
Ġrenovering 146004
Ġfirma 145987
Ġih 145963
ĠunderhÃ¥llande 145958
Ġsyss 145957
ĠundersÃ¶kt 145957
Ġnumret 145953
Ġsug 145949
ĠhÃ¶gskolan 145946
ĠGR 145939
Ã¤lt 145897
Ġjordens 145896
ĠgenomgÃ¥ng 145894
matchen 145888
Ġdistriktet 145850
Ġutsatts 145846
igan 145808
ĠlÃ¤mnats 145767
Ġsovit 145758
Ġpublicerade 145751
edag 145745
Ġdelat 145743
ĠutsÃ¥gs 145714
ĠFÃ¶rslag 145682
ĠkrÃ¤vande 145582
ĠSarah 145579
ĠNederlÃ¤nderna 145567
vÃ¤rt 145563
ĠutÃ¶va 145499
Ġkyrkoherde 145489
Ġmott 145472
ĠrÃ¤ntor 145429
Ġkre 145422
Ġkonjunktur 145414
ĠnordvÃ¤stra 145403
Ġpower 145384
ĠanhÃ¶rig 145381
Ġdeleg 145368
ĠstrÃ¤van 145347
Ġblickar 145338
Ġpassera 145336
ĠÃ¤gnade 145335
ĠunderlÃ¤ttar 145307
ĠHÃ¤gg 145300
ĠtjÃ¤nsteman 145298
ivit 145288
ĠbegrÃ¤nsas 145271
Ġutgjorde 145235
Ġnagra 145215
Ġ179 145195
ĠKraft 145193
bete 145186
ĠAp 145176
Ġmjukt 145176
ĠMÃ¥ndag 145171
rÃ© 145164
Ġbaksidan 145104
objekt 145094
Ġ1200 145081
ese 145065
stri 145059
Ġforskar 145051
Ġpsyk 145047
enska 145039
Ġprote 145028
ĠâĨĴ 145016
ĠklagomÃ¥l 144992
Ġinnovation 144989
ĠhjÃ¤rtan 144975
Ġarmarna 144966
ĠupprÃ¶rd 144961
ĠHÃ¥ 144949
Ġturen 144922
ĠMedia 144918
ĠlÃ¥net 144897
zo 144833
ĠGolf 144833
Ã¶ken 144829
ria 144826
ĠNorth 144779
Ġkopplade 144775
ĠBuss 144759
ĠresenÃ¤rer 144753
Ġhets 144715
Ġfinansiera 144713
ĠDanielsson 144650
Ġfilosof 144644
asson 144638
Ġstoppade 144631
pri 144628
isch 144621
ĠGÃ¥rd 144601
Ġkonsekvens 144598
ĠlikvÃ¤l 144570
Ġrim 144545
taget 144544
ĠtÃ¥rar 144536
Ġutbildad 144528
vakter 144524
Ġrekommendationer 144521
ĠRagnar 144488
Ġgarantera 144478
Ġkabel 144456
Ġcykeln 144400
Ã¤staren 144368
kamp 144352
ĠuppmÃ¤rksammade 144349
ĠTroll 144344
ĠJones 144334
ĠskÃ¤ra 144328
ĠFritid 144298
fver 144287
Ġuppman 144287
verka 144262
Ã¶ja 144234
aria 144188
ĠglÃ¶mde 144180
ĠansÃ¶kningar 144165
yc 144162
Ġstabilt 144152
ĠICA 144147
Ġletade 144140
Ġinsatsen 144133
ĠHjÃ¤lp 144113
lapp 144105
ĠHav 144063
Ġtalan 144024
Ġvarnar 144008
Ġannanstans 143998
dans 143969
egr 143968
ĠframgÃ¥ngsrikt 143959
bbe 143958
fÃ¶rklar 143952
Ġfaktura 143951
Ġdepression 143943
ĠhÃ¥llning 143928
Ð¸ 143914
Ġhembygd 143883
ĠNedan 143839
ĠÃ¥tt 143825
ĠfrÃ¥gat 143813
Ġprodukterna 143808
ĠPi 143804
ĠTen 143804
Ġidiot 143774
Ġskyldiga 143759
Ġkunskapen 143757
ye 143750
Ġvidta 143736
ĠSve 143723
ĠFÃ¤rjestad 143707
issar 143696
agan 143693
savdelningen 143686
Ġhuvudsakliga 143666
Ġutarbet 143658
Ġexistens 143656
ĠnordÃ¶stra 143654
Ġmellans 143622
Ġsynen 143616
ĠfÃ¶rd 143605
aliteten 143602
ĠfÃ¶rvar 143548
ĠFilmer 143542
format 143531
estad 143530
ĠGivetvis 143530
Ġsund 143530
Ġlova 143507
ĠVinter 143491
ush 143471
Ġkemiska 143461
ĠsÃ¶m 143460
ĠCap 143458
disk 143450
mÃ¶tet 143436
Ġonekligen 143412
Ġfe 143378
inet 143377
skad 143364
utstÃ¤llning 143364
ĠskÃ¶tt 143355
Ġcamping 143313
Ġroligaste 143263
Ġslutspelet 143258
ĠsÃ¥gs 143258
js 143253
Ð° 143229
Ġanslaget 143218
ĠfÃ¶reg 143214
festivalen 143187
ĠSamling 143184
teringen 143152
Ã¤cka 143151
ĠunderstÃ¶d 143142
Ġ1954 143120
ĠutÃ¶ka 143112
Ġkollektivavtal 143110
ĠLED 143082
ĠglÃ¤djande 143072
Ġexterna 143053
ĠfÃ¶rsÃ¤lj 143043
Ġrepresent 143017
ĠUniversity 143010
borna 142960
ĠDis 142959
ĠGi 142956
Ġpresenter 142931
ĠMary 142930
Ġkongressen 142918
ĠfÃ¶relÃ¤sning 142908
ĠdÃ¶ds 142879
Ġstunden 142848
Ġintens 142834
Ġcharm 142831
Ġq 142828
ĠrÃ¤tter 142817
figur 142802
rafiken 142759
ĠtilltrÃ¤de 142745
ĠChris 142740
Ġbroder 142739
DE 142735
Ġsens 142727
ĠHÃ¤sten 142701
Ġarbetslivet 142699
vat 142695
etal 142673
ĠLis 142671
ĠmÃ¤ssan 142669
sindustrin 142662
ĠsjukskÃ¶terska 142658
mos 142650
ĠSthlm 142650
hag 142648
Ġkollat 142644
spÃ¥ret 142610
Ġropade 142604
Ġarbetsplatsen 142600
ĠSvaret 142599
Ġbefri 142571
Ġsnett 142557
Ġpresst 142551
Ġlandade 142532
Ġlektion 142523
Ġsjunkit 142506
ĠChelsea 142503
Ġvaken 142475
funktion 142473
Ã¤ller 142470
ĠrÃ¥dgivare 142460
Ġtegel 142451
Ģ 142421
Ã¥ende 142420
Ġmoderat 142394
Ġvarmare 142379
pell 142342
stider 142339
Ġvaran 142319
smot 142287
Ġtales 142283
ĠSOM 142280
ĠEllen 142254
ĠGlobal 142243
ĠTem 142240
Ġsmala 142231
Ġparagraf 142222
skt 142215
Ã¤nnens 142194
ĠCreek 142165
Ġac 142154
jort 142140
Ġmoral 142136
Ġfunderingar 142129
Ġomedelbar 142108
Ġdrottning 142102
Ġmi 142094
sprocess 142089
ĠlÃ¶rdagens 142071
ĠbrÃ¶stet 142019
Ġviner 142011
Ġgam 142008
Ġstudenten 142002
ĠfÃ¶rvÃ¤nta 141965
ĠbesÃ¶karna 141904
Ġcar 141890
hÃ¥llet 141878
cancer 141865
Ġstadigt 141850
ĠstÃ¥ndpunkt 141849
ĠVolkswagen 141846
ĠfÃ¶rstÃ¤rka 141823
ĠLinde 141806
edel 141800
ĠKap 141800
ĠJimmie 141746
gers 141743
givare 141740
ĠÃĦlv 141726
Ġdiagnos 141725
ĠBir 141722
reda 141697
ĠfarvÃ¤l 141692
verktyg 141690
Ã¶ten 141681
Ã¤mmande 141661
Ġkika 141659
Ġstationen 141657
Ġcitat 141584
mil 141580
ĠLindqvist 141571
Ġflitigt 141558
Ġnar 141550
ĠHarald 141529
Ġlove 141522
tav 141498
kol 141451
Ġskrivande 141451
ĠOb 141445
Ġlung 141443
ĠstÃ¤ndiga 141423
ĠTest 141410
Ġpannan 141406
rÃ¶st 141391
vade 141376
senhet 141374
ologen 141360
Ġmys 141354
ĠTall 141348
ĠbÃ¥ 141340
Ġgrat 141338
fÃ¶rsÃ¶k 141317
onde 141260
Ġlyckligt 141249
ĠsjÃ¤lvfallet 141230
ĠkyrkogÃ¥rd 141221
tas 141220
ĠBag 141213
cht 141210
ĠÃ¥ttonde 141184
Ġolympiska 141169
Ġspeed 141159
XX 141117
Ĳ 141114
Ġkalas 141100
ĠglasÃ¶gon 141083
behov 141079
vÃ¤nd 141063
rapporter 141061
ĠPower 141049
Ġskarp 141048
Ġvisades 141047
ĠaktieÃ¤gare 141037
Ġutspel 141029
udd 141028
ĠkÃ¤nslig 141024
Ġ1951 141022
debatten 141015
Ġframt 141014
ĠEklund 140988
ĠExempelvis 140966
Ã¥la 140961
Ġkomp 140960
ifikation 140943
ĠDÃ¤rtill 140900
ĠsÃ¤krare 140885
ĠSU 140875
Ġtfn 140869
ĠlÃ¤kt 140864
Ġmr 140849
ĠfÃ¶rbjudet 140848
Ġforskarna 140825
Ġhygien 140818
uppgift 140797
Ġoroa 140789
sÃ¤ttningar 140766
uli 140757
ĠpoÃ¤ngen 140752
ĠDick 140747
Ġmuse 140746
stin 140745
ales 140744
ental 140741
ĠCan 140727
Ã¥ringen 140726
Ġduger 140691
Ġsnar 140686
skontroll 140669
vt 140666
ĠfÃ¶rhÃ¥llandevis 140656
andets 140647
Ġsaknades 140647
ĠMedel 140639
ĠgÃ¥vor 140632
ĠnÃ¥gorlunda 140627
Ġhyfsat 140618
Ġreagera 140614
ĠvÃ¤ga 140594
sÃ¤g 140588
Ġkommunist 140575
Ġkopplas 140573
Ġpizza 140558
Į 140558
ĠJÃ¤m 140533
Ġegentliga 140517
Ġbig 140512
ĠAS 140502
Ġassistans 140500
Ġhobby 140497
Ġavbr 140473
ĠVol 140424
33 140409
ĠÃĦng 140389
ĠÃ¶versyn 140381
Ġarenan 140377
Ġmeningar 140349
ere 140342
Ġanord 140340
Ġabonnemang 140328
Ġbjuds 140315
Ġaktiebolag 140298
aket 140288
Ġturn 140249
ycken 140246
é 140225
Ġtryckte 140221
ĠKÃ¤rlek 140191
Ã¤lj 140181
row 140160
Ġankn 140158
avgift 140132
Ġ1949 140117
procent 140066
ĠUD 140048
ĠmÃ¥lskytt 140034
skvÃ¤ll 140021
Ġstolar 139997
Ġbev 139995
EF 139990
ĠBNP 139974
Ã¤mnden 139973
Ġkomplement 139971
Ġanpassade 139964
ĠÃħR 139958
ned 139925
ĠLuc 139910
ĠmÃ¶rd 139903
sket 139897
Ġinsett 139886
Ġpraxis 139875
ĠinvÃ¥narna 139852
ĠGabriel 139822
lÃ¶shet 139815
ĠBÃ¥t 139752
ĠVe 139740
ĠOk 139736
ATT 139706
Ġavancerad 139676
Ġkvinnans 139670
ĠfÃ¶rsÃ¤m 139665
Ġadvent 139664
ĠEll 139653
Ġkritiker 139631
æ 139629
Ġprylar 139624
ĠSammanlagt 139617
emang 139599
ĠhÃ¤nvisning 139576
linje 139562
ĠÃ¤garna 139559
Ã¤stare 139539
Ġbefattning 139521
ĠkommittÃ© 139496
Ġkronan 139487
Ġbetalade 139477
ĠtvÃ¥an 139468
Ġsats 139448
oman 139426
sfri 139424
vist 139390
ĠDM 139368
ĠmÃ¤rka 139367
skytt 139358
Ġsysslar 139346
ĠskÃ¤rmen 139334
mitt 139324
ĠfÃ¶rdelas 139319
ree 139298
DER 139293
Ġberget 139292
ĠMyr 139286
olycka 139283
porter 139278
ytor 139268
Ġsovjet 139261
Ġposter 139255
sval 139247
ĠNer 139224
ĠArgentina 139223
vÃ¥g 139205
ĠgodkÃ¤nner 139201
ĠdokumentÃ¤r 139193
ĠhÃ¤mtat 139185
ĠHund 139177
Ġvardagar 139171
Ġansvara 139154
ĠFy 139135
ĠvÃ¤v 139134
iotal 139106
ĠCre 139105
priserna 139103
esb 139080
ĠIngenting 139048
Ġservera 139014
Ġkontraktet 139010
ĠdÃ¶mts 139002
Ġklok 138996
Ġvarsin 138994
skraft 138993
ĠÃĸrn 138992
Ġavseenden 138988
Ġmidnatt 138964
ĠfÃ¶ranled 138963
ĠTag 138961
ĠdrÃ¶mmen 138953
ĠÃ¥talas 138951
ĠGill 138948
ĠterrÃ¤ng 138934
Ġfixar 138932
ĠKir 138925
umman 138920
Ġfrig 138914
smyndigheten 138892
Ġbiograf 138883
komst 138881
ĠEleverna 138881
ĠAntingen 138863
Ġstyrkor 138850
ĠNO 138843
lorna 138825
Ġdominerande 138822
Ġslakt 138811
Ġredovisa 138793
ĠSÃ¶derberg 138777
riga 138769
Ġgrupperna 138766
hjÃ¤l 138761
Ġtestade 138726
Ġving 138709
ĠÃĸrnskÃ¶ldsvik 138706
ĠJoe 138688
ĠvÃ¤xtlighet 138648
ĠvarumÃ¤rken 138623
Ġtolkas 138614
ĠfÃ¶rstÃ¤rkning 138610
Ġtrakt 138592
ĠbekÃ¤mpa 138588
ĠPierre 138570
forskning 138501
ĠfÃ¶rslagen 138479
viks 138444
ĠrÃ¥kat 138443
Ġplatta 138438
snÃ¤mndens 138399
Ġvandra 138373
sakt 138360
Ġsegel 138349
Ġdylika 138326
ussen 138321
Ġtjejen 138303
Ġmedverkade 138283
Ġstek 138280
ĠÃ¥ringar 138277
ĠrÃ¤ddning 138197
Ġmiddagen 138177
kÃ¤r 138150
halt 138093
Ġpant 138082
Ġinnehav 138066
Ġsko 138048
Ġfixade 138035
ĠKevin 138021
inc 138016
Ġkatten 138011
Ġvideon 137996
atts 137990
ĠbÃ¶ 137990
ĠBoll 137953
entern 137942
ĠDamer 137890
Ġ1953 137876
ĠKungs 137874
inska 137866
anst 137850
ĠosÃ¤kra 137849
Ġrast 137821
ĠbÃ¤ste 137816
ĠVikt 137785
Ġfrivillig 137784
ĠKlubb 137780
ĠnÃ¶t 137762
NINGAR 137749
Ã¤nningen 137713
Ġyrken 137708
ĠregissÃ¶ren 137692
Ġveckors 137679
ĠVÃ¤rnamo 137671
Ġsamordning 137671
Ġkorrespond 137663
Ġskoll 137663
ĠXXX 137662
ĠAsk 137643
ĠuppehÃ¥llstillstÃ¥nd 137603
ĠElit 137554
ĠredaktÃ¶r 137547
Ġavslutande 137522
ĠBO 137511
ĠÃ¶versÃ¤ttning 137510
Ġdaglig 137504
Ġmoderaterna 137488
ĠpÃ¥minna 137485
EST 137470
ĠFÃ¶dd 137468
ĠJonathan 137468
ĠbokfÃ¶ring 137461
Ġupplevelsen 137456
varu 137431
ĠAktie 137390
ersÃ¤ttning 137368
Ġindirekt 137362
omer 137360
fen 137354
ĠKF 137346
efter 137344
ĠfÃ¶rklar 137336
Ġgirls 137318
Ġham 137310
oret 137309
Ġwill 137306
Ġlike 137290
ĠsjÃ¤lvt 137288
ĠomhÃ¤nder 137261
ĠÃ¤mnes 137246
ĠFaktum 137238
Ġfader 137226
ĠhÃ¶js 137191
ĠRasmus 137189
ction 137182
ĠGert 137145
ĠBla 137138
polisen 137104
Ġproducent 137093
Ġitu 137082
ĠSofie 137076
Ġpromenader 137069
sformer 137068
Ġutdel 137032
Ġpasserade 137021
oda 137016
ĠfÃ¶rtroendet 137007
ĠVideos 137004
ĠResten 136995
Ġhu 136978
ĠSar 136975
ĠutmÃ¤rkta 136956
ĠnÃ¤tterna 136954
ĠinskrÃ¤n 136940
samheten 136920
ĠSyl 136916
Ġjagar 136909
Ã¤mna 136900
Ġnacken 136898
Ġtop 136885
uppgifterna 136883
ĠbegrÃ¤nsningar 136875
Ġful 136869
ĠinsÃ¤ndare 136854
ĠLagen 136763
ĠmÃ¥lade 136703
Ġspeglar 136663
ĠSnabb 136659
ĠgenomgÃ¥ende 136656
ĠTrÃ¤n 136638
ĠKA 136583
Ġig 136582
ĠlÃ¤nets 136577
lÃ¤r 136571
Ġcigar 136541
ĠjÃ¤ttekul 136531
ĠmisstÃ¤nkte 136530
Ġtagen 136523
ĠmÃ¤ter 136512
Ġfars 136502
Ã¤nga 136493
ĠskÃ¥despel 136492
ĠhÃ¶rdes 136489
ĠMicke 136486
ĠMis 136476
ĠnÃ¤mnts 136459
Ã¤ttning 136438
Ġye 136431
Ġmotsatt 136422
ĠsÃ¤llsynt 136371
ates 136368
ĠDagbladet 136367
Ġbitter 136361
sfÃ¶rvaltningen 136334
Ġfemtio 136320
Ġgynnar 136301
ĠfÃ¶rblir 136294
poÃ¤ng 136293
Ġpojk 136278
mask 136259
sklass 136258
ĠNot 136232
ĠlÃ¶nsamhet 136198
rÃ¤tter 136188
Ġhandlingen 136165
Ġmysiga 136159
iseringen 136152
skri 136151
ligan 136132
Ġbrann 136129
ĠnybÃ¶rjare 136100
ĠKungsbacka 136078
Ã¶tet 136070
spl 136034
ĠfÃ¶rse 136034
Ġstaterna 135986
Ġvarandras 135979
ĠÃ¶ronen 135978
Ġ178 135976
ĠgenomgÃ¥tt 135971
Ġodla 135966
inga 135932
ynt 135923
play 135901
Ġblandade 135890
Ġkanalen 135840
Ġjudiska 135820
vÃ¤ 135812
ĠÃ¥skÃ¥d 135803
tagit 135789
ĠjÃ¤vligt 135777
ĠDD 135773
ĠAnmÃ¤l 135770
ĠtÃ¤vlingarna 135769
Å« 135760
marker 135730
Ġhom 135724
Ġhave 135712
ĠÃ¶nskvÃ¤rt 135710
ĠdÃ¶lja 135706
28 135704
ĠlÃ¤saren 135699
ĠsjukskÃ¶terskor 135652
smÃ¥let 135621
uga 135613
Ġfol 135611
ĠtrÃ¤den 135602
Ġmisslyckas 135598
ĠCH 135596
gjorda 135594
ĠGoteborg 135585
blod 135580
stall 135552
Ġspan 135551
regl 135550
ĠJuli 135550
Ġbruna 135543
ĠÃ¶ppettider 135512
ĠIvan 135501
cent 135467
Ġmotsats 135462
Ã¤de 135457
Ġdikter 135433
Ġkvalificerad 135430
Ġstimulera 135395
ific 135378
ĠSanna 135364
Ġalbumet 135360
SD 135350
Ġknyta 135348
ĠdrÃ¶jde 135347
Ġmeriter 135346
Ġll 135328
ĠVÃ¤rldens 135323
Ġhoppet 135320
Ġrosor 135320
Ġarkitektur 135314
ĠbestÃ¤mmelse 135312
Ġuppdatera 135306
ĠPA 135296
Ġyoga 135283
ĠslutÃ¤ndan 135279
ĠWahl 135236
skij 135223
ĠkvarstÃ¥r 135223
Ġsvaren 135205
Ġordnade 135165
kaka 135163
ĠOx 135156
Ġstyck 135154
ÃĦTT 135152
ĠKuk 135146
ĠSalt 135136
ĠEL 135129
ĠmÃ¥dde 135123
Ġotr 135121
Ġsed 135115
Ġrapporterade 135109
Ġstriden 135088
ĠTherese 135079
Ġforna 135067
Ġintervjun 135064
Ġfysik 135056
Ġorganis 135036
Ġriskera 135034
Ġnew 135032
ĠLÃ¤get 135030
skogen 135025
Ġsmink 135004
ukt 134989
Ġskylla 134987
Ġaktierna 134986
ografiska 134969
ĠPremier 134956
Ġtvingade 134949
Ġ750 134948
erier 134940
Ã©s 134930
Ġtorrt 134914
yo 134892
ĠNÃ¤ra 134891
Ġnackdelar 134864
ĠFL 134863
ĠVitt 134831
ĠgodkÃ¤nda 134806
ĠprÃ¤glas 134802
Ġindividuell 134783
Ġskift 134768
ĠGam 134763
Ġdryga 134746
Ð´ 134730
Ġinrikt 134730
ĠbitrÃ¤dande 134724
Ã¶den 134693
Ġdistribution 134693
ĠenkÃ¤t 134662
Ġbibe 134660
ĠGold 134637
ĠTimes 134632
Ġsign 134630
Ġdepartementet 134601
Ġsoldat 134601
ĠMS 134597
Ġstannat 134596
Ġtyskarna 134586
Ġvas 134580
Ġbiologiska 134563
Ġutrikesp 134539
Ã¤ste 134538
ĠSkillnaden 134536
ĠfÃ¶rhoppning 134533
Ġtycktes 134481
ĠnÃ¤rma 134460
utskott 134456
Ġmotorcykel 134453
ĠCharlie 134451
STAD 134445
isternas 134437
dor 134421
Ġeffekterna 134405
ĠBach 134393
ĠWhite 134389
ĠfÃ¶ref 134381
ĠnÃ¤rstÃ¥ende 134372
ĠslÃ¤ 134362
oppar 134361
ĠnÃ¥s 134350
Ġuttrycket 134344
Ġkroppar 134330
Ġpositioner 134322
Ġresande 134275
ĠTimrÃ¥ 134255
Ġspill 134244
Ġanpassas 134240
ĠstjÃ¤rnan 134222
slan 134206
ĠLiberalerna 134194
Ġsittande 134183
Ġpappan 134179
Ġstyrelsens 134174
lyst 134172
Ġbyggts 134158
Ġmatlagning 134118
sjuk 134117
Ġeffektivare 134097
Ġriskerna 134072
yns 134051
intresserade 134050
Ġvanilj 134049
Ġtraditionellt 134023
Ġunderskott 134011
Ġuppsala 134002
AMN 133996
unnen 133971
Ġhatt 133965
Ġterm 133963
ĠÃ¶va 133957
Ġhonung 133950
Ã¥sen 133914
sliv 133909
ĠLad 133889
snÃ¤s 133836
ĠOftast 133834
Ġvers 133794
Ġbrinnande 133782
Ġmiste 133760
ĠbestÃ¤mda 133752
ĠSov 133709
Ġstackars 133697
sstÃ¶d 133694
Ġattraktiv 133666
ĠPil 133648
dalen 133640
okalen 133597
ningssystem 133576
ĠMur 133566
Ħ 133537
Ġfattigdom 133533
Ġink 133524
Ġuppvakt 133490
ĠKAR 133489
Ġpressa 133481
ĠaffÃ¤rs 133480
beg 133458
merna 133456
uni 133449
Ġnyheten 133444
narna 133435
Ġladdar 133433
cis 133420
ĠStyr 133418
shandel 133415
Ġpsykolog 133414
ĠKin 133409
ĠrÃ¤ttighet 133402
spolis 133368
69 133353
avdelning 133352
ĠTjej 133329
Ġetta 133321
Ġhoppades 133321
ĠAbsolut 133317
ĠJÃ¤rn 133295
Ġteckna 133294
Ġfriheten 133291
Ġskattef 133280
ĠStaden 133278
Ġformellt 133272
ĠFÃ¶rhoppningsvis 133259
festival 133232
uld 133230
ĠDes 133223
ĠtrÃ¤der 133217
Ġintress 133210
27 133186
ĠRem 133179
ĠSÃ¤g 133178
ĠsÃ¥vitt 133175
rÃ¥k 133166
ĠsjÃ¤lvstÃ¤ndighet 133164
enskap 133157
ĠLidkÃ¶ping 133137
odling 133128
Ġtyckt 133127
ĠFrisk 133126
Ġprincipen 133122
ĠProjekt 133111
Ġframkom 133102
fat 133100
ati 133069
ĠbekvÃ¤ma 133061
YR 133035
ĠMart 133002
klart 132974
Ġskadan 132969
ĠÃ¶verfÃ¶r 132961
Ġrinner 132960
ĠFB 132959
Ġkreativ 132956
Ġbesluten 132953
ĠSÃ¶lvesborg 132950
grÃ¤ns 132929
iera 132928
ĠSym 132920
ĠlÃ¤g 132894
Ġmammas 132886
ĠavstÃ¤ngd 132867
Ġgatu 132855
ĠlÃ¤cker 132852
istor 132840
Ġuppskattas 132837
mes 132806
Ġekologisk 132794
ĠfÃ¶rhandla 132786
cm 132779
stern 132768
ĠHÃ¤st 132766
vensk 132744
Ġsikte 132744
ĠlÃ¥tarna 132725
upplevelse 132690
frÃ¥g 132682
Ġfelaktiga 132673
ĠEver 132661
Ġone 132619
Ġryssarna 132603
ĠVara 132586
Ġfusk 132586
Ġbetraktar 132584
ĠmÃ¤nsklig 132569
ĠFan 132543
sposten 132537
ĠkÃ¤mpat 132537
Ġrelevanta 132532
Ġhaver 132514
ĠfÃ¶rÃ¤ndringen 132496
Ġkakor 132488
Ġgrundskolan 132476
Ġmanlig 132476
ĠDigital 132464
ĠdÃ¶ttrar 132460
ĠverkstÃ¤llande 132435
smuseet 132412
Ġleksak 132411
ĠvÃ¤lkomnar 132386
ĠhovrÃ¤tt 132383
dÃ¥ 132354
Ġkonservativa 132329
Ġtillverkade 132317
ĠFÃ¶rsÃ¤kring 132272
ĠSkar 132272
Ã¤md 132264
ĠstÃ¶djer 132259
Ġ1942 132248
Ġliberala 132228
ĠArbetsfÃ¶rmedlingen 132196
ĠKristus 132192
jel 132187
Ġ1941 132178
ĠÃĸresund 132163
Ġverksamma 132146
ĠAndrÃ© 132142
ĠNato 132138
gin 132135
Ġrehabilitering 132125
ĠKommittÃ©n 132118
kod 132111
ĠSvante 132111
jest 132108
ĠKristersson 132104
ĠglÃ¤djen 132092
Ġhelger 132085
ĠLundqvist 132083
stans 132072
Ġfingrarna 132070
ĠPorrfilm 132052
ĠSF 132036
CC 132035
anstÃ¤llda 132035
ĠfÃ¶rtryck 132033
stift 131980
ĠFÃ¶ljande 131980
ado 131973
ĠHjÃ¤rt 131972
Ġtveksam 131956
ĠVimmerby 131955
Ġungar 131946
ĠSÃ¤kerhet 131925
Ġatom 131911
vÃ¤der 131901
Ġbrevet 131892
huvud 131865
nivÃ¥n 131853
aa 131846
ierad 131842
Ã¶relsen 131842
Ã¥ndet 131830
ÃĦLL 131821
Ġork 131816
ĠfÃ¶rmÃ¥ner 131814
aken 131796
Ġpropaganda 131793
ologiskt 131789
ocker 131785
Ġgifter 131768
ĠIrland 131757
Ġtionde 131726
Ġgenomsnittliga 131714
skommun 131708
Ġdimension 131706
Ġbull 131705
Ġspins 131702
Ġtraditioner 131695
Ġromanen 131685
ĠveterinÃ¤r 131676
Ġprioritera 131667
ĠSpa 131655
Ġriva 131655
Ġoj 131642
Ġetablering 131620
udden 131611
baserade 131597
Ġstel 131591
jÃ¤ll 131556
ĠHÃ¶gsta 131544
ĠTransport 131541
Ġbeteck 131526
Ġsval 131526
yft 131499
Ġexpansion 131499
Ġfadern 131495
fe 131493
igh 131485
produkt 131470
adel 131463
ĠER 131460
brev 131451
Ġutspelar 131450
kultur 131429
Ġbetydde 131387
ĠCalle 131377
ĠDennis 131366
inda 131355
lÃ¤nd 131339
Ġborr 131329
Ġolj 131328
Ġkvalificerade 131306
Ġassist 131305
ĠbestÃ¤ll 131283
Ġsovjetiska 131280
Ã¤nna 131253
Ġgymnasium 131252
ĠRob 131223
win 131219
Ġfastnade 131208
sens 131194
ĠTorg 131194
ĠbetrÃ¤ffar 131191
Ġavsl 131173
ĠTranÃ¥s 131164
Ġakuta 131162
ĠtÃ¤nderna 131154
ory 131148
gÃ¤ng 131140
ĠapplÃ¥ 131129
Ġhotet 131127
ĠfÃ¶rvandlas 131126
ĠLek 131119
Ġklick 131108
uth 131075
ĠnedgÃ¥ng 131066
ĠdrÃ¶jer 131044
sutbildning 131042
Ġinnevarande 131035
Ġbon 131020
Ġleds 130996
ĠÃ¥terkomma 130993
itioner 130978
god 130964
ĠVattenfall 130949
Ġlangivare 130945
ped 130944
intyg 130934
Ġuppskatta 130925
Ġtrappan 130914
Ġkusin 130910
Ġfonden 130899
ĠKlas 130897
Ġsamlats 130894
ĠRut 130881
urn 130864
Ġtillsatt 130851
ĠslÃ¤kten 130849
Ġago 130823
Ġensamkommande 130788
Ġsannerligen 130769
Ġsw 130740
Ġrevision 130733
ICK 130732
ĠanhÃ¤ngare 130726
ĠfÃ¶rebild 130700
day 130698
ĠvÃ¤rdefull 130687
sÃ¤nd 130685
vallen 130684
Ġtomat 130676
Ġtorn 130664
ĠAdress 130661
Ġstrategier 130657
hÃ¤ls 130650
ĠrÃ¶rlig 130647
Ġstoppar 130633
ĠBeg 130622
Ġalliansen 130617
ĠpÃ¥peka 130599
Ġkapp 130591
ĠspÃ¥ra 130574
givningen 130568
Ġspecifikt 130566
ĠVetlanda 130559
ĠanmÃ¤lningar 130558
bek 130551
ange 130545
centralen 130518
Ġskulden 130517
ĠsÃ¤nd 130509
etti 130498
sÃ¤songen 130498
hÃ¤n 130496
ĠTopp 130484
Ġkem 130484
rigt 130469
Ġinstruktioner 130468
Ġmeddelat 130467
ĠLim 130466
perioden 130456
ĠSaint 130455
Ġuppskattade 130442
ĠLinkÃ¶pings 130429
Ġuppfattar 130422
stÃ¤ng 130412
Ġelektronik 130384
sfest 130373
Ġmobila 130352
ower 130332
Ġklient 130319
Ġbanor 130301
Ġpedagogiska 130297
Ġfur 130287
Ġbin 130257
ĠupptrÃ¤da 130255
¡ 130250
Ġavslutat 130237
Ġgot 130220
juter 130204
ago 130199
ĠDenne 130197
ĠHolmberg 130173
Ġbergen 130152
ingsl 130141
ĠvarifrÃ¥n 130126
esh 130116
ģ 130093
Ġbasket 130091
sgr 130072
agatan 130070
utredning 130068
ĠLyck 130066
Ġkrets 130061
ĠhÃ¥llbara 130030
ĠKungliga 130017
Ġkomplettera 129993
ĠfastÃ¤n 129989
sutveckling 129978
Ġslutsatsen 129944
inder 129943
Ġfota 129937
Ġkomfort 129930
ĠhÃ¶jden 129917
ĠhuvudvÃ¤rk 129902
Ġredovis 129902
Ã¥kning 129897
ĠðŁĺī 129863
Ġfasc 129850
stenar 129845
ĠfÃ¶rsÃ¤kringsbolag 129836
ĠdrÃ¶ja 129829
bur 129818
ĠsydvÃ¤stra 129802
ĠmÃ¶tas 129791
Ġviktigast 129788
ĠskÃ¥despelaren 129787
Ġbu 129764
Ġhalt 129757
Ġbesegrade 129740
Ġyr 129735
Ġpersonbil 129734
Ġstrej 129699
ĠgrÃ¤t 129669
ĠstrÃ¶ 129661
Ã¥det 129653
ĠNed 129651
hÃ¥llit 129612
Ġannon 129609
Ġlagring 129579
ses 129558
Ġfiska 129555
Ã¤des 129545
ĠvÃ¥ningar 129545
Ġsagts 129537
Ġblomma 129510
Ã¤cken 129484
snummer 129475
Ġdrunk 129468
Ġsill 129465
ĠgenomfÃ¶rde 129445
Ġescorts 129437
ĠLov 129435
ĠLinder 129404
ĠMA 129401
skoll 129382
hed 129374
ĠLinnÃ© 129362
ĠBredden 129350
ĠklÃ¤dd 129320
ĠstÃ¶der 129302
ĠHÃĦR 129301
Ġanvisningar 129290
ĠUtstÃ¤llningen 129270
ĠFÃ¶rvalt 129257
ĠskÃ¤gg 129257
Ġkondition 129237
ĠstrÃ¤ck 129225
ymp 129219
Ġrys 129191
ĠlÃ¤karna 129190
Ġinuti 129179
sÃ¥r 129153
Ġkomedi 129152
Ġvindkraft 129146
Ġdays 129135
Ġfunderade 129092
Ġtillg 129068
ving 129051
stag 129041
Ġerfarna 129032
ians 129030
Ġryss 129021
ĠnÃ¤rliggande 128993
ĠKunskap 128990
Ġbehandlingar 128987
ĠGruppen 128955
ĠSkansen 128947
ĠlÃ¶rdagar 128935
etag 128933
Ġ115 128910
odd 128877
ĠmÃ¶tesplats 128865
PR 128863
Ġteleg 128823
Ġomkom 128803
Ã¶ld 128787
illar 128730
ĠBÃ¶rja 128693
ofta 128680
wood 128675
Ġideella 128673
Ġleasing 128671
Ġgrattis 128670
ĠIntress 128664
ĠfÃ¶rdela 128649
jung 128607
ime 128599
Ġbaserade 128590
Ġbilaga 128578
ĠfÃ¶rflutna 128571
Ġkylan 128565
Ġhalvan 128546
OD 128543
Ġstyrs 128511
zi 128508
ĠstÃ¤rker 128498
Ġventil 128475
ĠEfterÃ¥t 128466
Ġkreativitet 128466
sked 128427
Ġslutsats 128426
Ġgrenar 128415
ningsl 128389
Ġskruv 128375
ĠvÃ¤ldiga 128373
ĠZetter 128356
ĠTi 128354
ĠskÃ¤rpa 128305
ĠtonÃ¥ringar 128305
Ġburk 128301
ĠfÃ¶ljs 128277
ĠMobil 128270
Ġfula 128269
ĠfÃ¶rsv 128260
llerna 128256
block 128248
Ġturer 128238
lingarna 128236
trafiken 128233
UL 128231
ĠPolit 128222
Ġskrivbord 128219
Ġox 128217
ĠKalla 128190
Ġnamnen 128185
Ġ1938 128165
Ġarren 128155
farten 128115
Ġinvandrar 128115
ĠlÃ¶ften 128102
Ġtros 128090
kass 128083
kraften 128083
hm 128077
Ġutses 128056
Ġtavlor 128050
ĠHopp 128046
ugh 128043
ĠfÃ¶rbereder 128035
ding 128030
irekt 127995
ĠtrÃ¥kig 127987
ĠLam 127981
Ġvarvet 127981
Ġhuvudrollen 127979
ĠinsÃ¤ttning 127979
jÃ¤ 127971
Ġblandas 127958
banor 127957
Ã¤get 127934
ĠÃħret 127922
ĠkÃ¤llaren 127904
ĠovanpÃ¥ 127888
ĠavrÃ¤tt 127879
drÃ¤kt 127876
ĠEinar 127864
ĠgrÃ¤va 127834
ĠjÃ¤ttel 127828
Ġplaneringen 127821
ĠPhil 127803
uropa 127774
ĠhÃ¤ndelserna 127747
ĠMagdalena 127738
Ġbeaktas 127729
Ġupptag 127703
ĠFalk 127699
Ġsus 127692
institutet 127689
Ġbrittisk 127682
erska 127663
fÃ¶rmÃ¥ga 127660
barhet 127634
Ġbakterier 127609
ĠiPhone 127580
bat 127570
ĠrÃ¥da 127568
ĠKvar 127542
oken 127541
Ġsubvention 127487
ĠSpecial 127483
Ġextrema 127475
ĠLiber 127452
ĠtÃ¤nda 127438
Ġarten 127432
iffror 127424
Ġbenet 127400
Ġdim 127389
Ġgivande 127383
ĠText 127379
Ġradi 127365
ĠAT 127362
text 127346
Ġbaby 127333
ellen 127330
ĠÃ¤m 127330
stÃ¤llande 127323
ĠnÃ¤mnd 127295
Ġluktar 127263
ĠDrag 127254
ĠNik 127251
icka 127244
Ġbrottslighet 127241
ĠmÃ¶bel 127207
osl 127185
mÃ¥let 127169
ikar 127165
ĠSolen 127165
motor 127141
ĠRub 127140
ĠMattsson 127130
Ġmammor 127084
Ġpatent 127042
ĠOut 127035
Ġcheck 127004
Ġanti 126990
ĠPor 126956
Ġuppvuxen 126956
ĠKlimatet 126954
Ġoc 126954
Ġviljan 126947
Ġprovat 126943
ĠsammantrÃ¤det 126932
Ġjur 126916
Ġkollektivtrafik 126912
Ġimponerad 126908
Ġgivna 126903
personer 126896
ĠgrÃ¤nserna 126892
ĠfÃ¶rtjust 126887
amma 126884
rÃ¤den 126884
stÃ¶r 126881
Ġidrotten 126881
zar 126876
Ġdocent 126871
ydd 126853
ĠentreprenÃ¶r 126841
ĠtrÃ¤da 126832
jÃ¤n 126829
Ã¶rda 126803
99 126801
Ġprogramledare 126795
edin 126786
Ġstyrning 126725
ĠsÃ¥ngare 126716
44 126711
mÃ¤l 126706
UPP 126667
Ġungdomen 126666
ĠSamuelsson 126621
ĠhÃ¶jda 126617
Ġdokumentation 126526
ĠGalleri 126500
rie 126472
iav 126467
ĠgÃ¤rningsm 126461
ĠberÃ¤kning 126434
festen 126428
ĠKors 126399
junkt 126387
ĠSamuel 126387
anlÃ¤ggningar 126374
Ġitalien 126372
duk 126344
Ġfloden 126307
beroende 126292
Ġlandar 126286
ĠSolvalla 126275
Ġskogar 126260
ĠNT 126251
Ġfost 126224
issa 126213
Ġfiras 126211
Ġtidpunkten 126197
Ġfascinerande 126189
Ġ3000 126182
ute 126170
Ġpekade 126154
Ġordf 126146
Ġkonkurrenter 126132
Ã¶jning 126125
ĠRim 126113
ĠTorsdag 126102
idande 126075
lic 126071
Ġkandidater 126071
ĠIslam 126029
ĠBlue 126027
Ġmedans 126021
finans 125999
ekonomiska 125993
skÃ¤l 125975
sbarn 125960
Ġoffensiv 125951
ĠTu 125921
studier 125919
Ġpublicerades 125915
Ġanpassad 125890
oria 125883
skurs 125882
stolen 125872
ĠEksjÃ¶ 125860
ĠskÃ¶tte 125825
Ġstre 125813
sverk 125772
Ġheliga 125762
natt 125742
ĠKrister 125739
ĠtrÃ¤dgÃ¥rdar 125739
ĠVÃ¤nersborg 125736
ĠHamn 125732
ĠbrÃ¥ttom 125713
sfull 125705
ĠAnge 125698
sbron 125689
Ġpucken 125670
ĠskÃ¤rp 125664
ĠBrunn 125661
eled 125660
hop 125647
ĠServera 125647
trÃ¤ning 125629
alj 125621
Ġinbjudan 125612
ĠbegÃ¥ 125600
Ġdekor 125590
Ġdist 125558
yndigheterna 125555
Ã¥ta 125543
ĠfÃ¶ror 125536
Ġuppror 125516
ĠhyresgÃ¤ster 125515
ĠMÃ¶ller 125507
Ġimorse 125496
Ġnyttigt 125489
medicin 125486
Ġbeklag 125476
Ã¶dande 125471
Ġblandat 125454
Ġlekte 125451
Ġdramatiska 125424
ĠNorrlands 125420
Ġlyssnat 125368
Ġkomplex 125351
ĠLee 125350
omÃ¥l 125345
ĠSala 125332
Ġfrim 125330
ĠOnsdag 125322
Ġblack 125318
Ġsistone 125317
ĠjÃ¤mfÃ¶ras 125294
ĠlÃ¥da 125271
ĠmedfÃ¶rt 125248
ĠRoy 125247
ĠsjÃ¤lvklar 125247
ĠSkatt 125219
Ġdefens 125216
ĠKrit 125202
orterna 125193
olv 125177
helgen 125174
Ġoav 125163
Ġrycka 125163
ĠfÃ¶rmiddag 125158
ĠSto 125151
ĠTeknik 125149
ĠfÃ¶rverkliga 125144
ĠIkea 125139
ĠYoutube 125126
Ġutmaningen 125105
Ġagent 125103
ĠUtanfÃ¶r 125066
ĠAnder 125061
ĠIM 125050
Ġrensa 125049
Ġintensiva 125046
Ġbudskapet 125035
ĠTage 125020
alisera 124982
Ġuttryckte 124974
ĠBeach 124971
ĠSB 124966
Ġinhemska 124966
chi 124958
ĠHelen 124948
Ġslagen 124939
Ġobes 124923
ĠerhÃ¶ll 124922
itiva 124920
ĠhÃ¤rad 124919
Ġklassiskt 124910
riska 124887
ektorn 124866
Ġengels 124853
ĠfÃ¤lla 124852
Ġturnering 124839
utrustad 124829
allad 124803
ĠIntresset 124797
smÃ¤nnen 124792
terar 124780
ĠAxelsson 124774
Ġlastbilar 124757
ĠfastighetsÃ¤gare 124746
ĠMedlem 124732
ĠMetall 124732
ĠrÃ¶ka 124728
Ġordnas 124710
Ġsmaker 124706
ĠKalifornien 124705
Ġopinions 124703
ĠLundin 124691
ĠomvÃ¤xlande 124672
Ġviset 124663
ĠtÃ¤ck 124645
ĠfÃ¶rutsatt 124643
mande 124632
Ġelektriska 124626
ĠhovrÃ¤tten 124625
Ġoroar 124581
Ġmotivation 124580
ĠtÃ¥rta 124567
ĠHalv 124562
ĠJun 124556
Ġtempot 124553
pps 124536
ckta 124517
ĠgrÃ¤set 124510
Ī 124494
ĠColl 124487
Ġlist 124466
ĠnÃ¶dvÃ¤ndigtvis 124458
Ġrimliga 124457
Ġmore 124456
ĠpÃ¥pekade 124441
ĠEkman 124406
ĠNÃ¤ringsliv 124396
Ġhol 124394
sort 124380
° 124375
ĠÃ¶vervÃ¤ga 124340
skostnaderna 124322
Ġanse 124322
antalet 124314
bÃ¥tar 124298
rÃ¥ket 124293
Ġhelgens 124289
Ã¤mnade 124261
hÃ¶ 124247
Ġlyss 124245
oa 124242
ĠtillgÃ¥ngen 124229
sÃ¤kerhet 124215
Ġannans 124207
ĠWebb 124195
Ġbete 124182
Ġambitioner 124179
Ġkick 124172
ĠNick 124169
Ġmisshand 124129
ĠrÃ¶v 124129
ĠkonstnÃ¤rliga 124124
fÃ¶ljd 124121
Ġeh 124098
kapital 124081
Ġutmanande 124075
Ġkrog 124073
Ġtera 124072
vande 124054
ĠmÃ¥lningar 124050
ĠForum 124021
ĠNet 124013
Ġmedierna 123998
delningar 123977
ĠÃ¤ran 123959
ĠSkapa 123958
Ġgall 123948
Ġull 123945
sorganisation 123936
Ġlotter 123922
Ġtoner 123910
Ġsympat 123900
ĠIndonesien 123889
ĠmÃ¤ss 123865
ĠVarken 123857
Ã¶rn 123851
JÃĸ 123845
ĠVuxen 123833
Ġ1943 123825
ungar 123813
Ġstig 123813
bordet 123800
ĠtrÃ¥kiga 123795
less 123786
ĠtillÃ¤mpa 123786
inerna 123785
sbank 123771
LAND 123768
ĠfÃ¶religga 123764
sbanken 123748
Ġteck 123727
ĠNatt 123706
Ġnyheterna 123703
MS 123669
ansÃ¶kan 123649
ĠPorno 123633
ĠSeg 123632
Ġsektion 123632
ĠberÃ¶rs 123608
Ġmeny 123605
ĠfunktionsnedsÃ¤ttning 123592
ĠMas 123577
Ġbefatt 123562
Ġkonserten 123556
Ġtem 123554
ĠuppgÃ¥ng 123538
ĠbjÃ¶ds 123518
Ã¤songen 123495
gÃ¤ster 123486
Ġstuderat 123486
rust 123482
Ġamerikanske 123477
Ġfortare 123466
Ġpropag 123466
ĠÃħt 123450
Ġintroduktion 123446
Ġklubbarna 123428
ĠFranz 123425
spartiet 123420
emot 123414
fÃ¶rhÃ¥llanden 123405
Ġ190 123390
ĠData 123388
Ġlampor 123381
ĠAllmÃ¤nna 123379
ĠSkÃ¥n 123376
vil 123358
ĠTidning 123357
made 123355
Ġgris 123333
ĠKommentar 123332
ĠMir 123295
95 123273
givande 123265
Ġfla 123265
Ġsexuell 123251
ĠAngel 123220
Ġnetto 123207
Ġgaranterar 123203
Ġfriluft 123184
Ġkopplat 123169
Ġlang 123117
arten 123099
ĠArsenal 123061
ĠGanska 123052
Ġpaketet 123051
Ġbeseg 123045
anslag 123037
ssidan 123035
ĠLeo 123002
ĠsjÃ¤lvklarhet 123002
skill 122977
ĠNybro 122963
Ġutmed 122950
yter 122933
ĠNaken 122910
Ġstolthet 122906
Ġryckte 122898
pal 122890
ĠWid 122887
Ġfastighets 122871
ĠFall 122846
Ġstabilitet 122846
ĠmÃ¶jliggÃ¶ra 122836
¨ 122808
anmÃ¤lan 122802
kro 122798
Ġorganisera 122789
ektionen 122776
km 122775
Ġtekn 122771
ĠkÃ¤ndis 122761
visas 122758
Ġsatsat 122735
Ġning 122724
ç 122719
ĠfaststÃ¤lla 122719
Ġbegav 122700
Ġlockade 122695
Ġavgjorde 122692
ih 122677
ĠersÃ¤tter 122647
olitik 122645
Ġtester 122639
ĠFitta 122633
Ġupploppet 122611
ĠvÃ¤nstra 122602
ĠpÃ¥stod 122588
Ġjubileum 122553
Ġjulklappar 122549
ĠTull 122542
Ġhuvudkontor 122540
snÃ¤mn 122525
ĠFortfarande 122525
Ġinspirerad 122520
Ġuppskattat 122519
manna 122513
ĠBB 122504
ĠPengar 122502
ĠjÃ¤ttemycket 122501
ĠutslÃ¤ppen 122486
ANDE 122478
TM 122477
ifta 122469
ĠhÃ¶gern 122465
ĠfÃ¶rne 122455
Ġkampanjen 122430
Ġambassad 122421
Ġhiss 122405
ĠMun 122404
ĠÃ¥terf 122395
lister 122386
Ġpoker 122375
ĠdelÃ¤gare 122345
ĠsvÃ¥raste 122342
Ġ165 122337
Ġmotivera 122334
Ġtelefoner 122323
ĠFrans 122321
fÃ¶reningar 122305
Ġklickar 122302
Ġidrotts 122275
ĠÃħlder 122270
Ġlagkapten 122214
ĠKata 122213
Ġtenderar 122183
ĠUniversitet 122169
oker 122167
ĠavvÃ¤g 122157
Ġundviker 122147
ĠnÃ¶jes 122140
ĠTran 122135
ĠonÃ¶diga 122122
ĠVÃ¤sby 122111
ĠEngstrÃ¶m 122094
ĠPL 122078
ĠfÃ¶rsvag 122078
ĠSÃ¶dermalm 122073
Ġflagg 122073
middag 122069
ĠvalrÃ¶relsen 122069
ĠrÃ¥dde 122041
asc 122037
Ġvari 122024
Ġskrivet 122012
Ġgenerella 122009
ĠifrÃ¥gasÃ¤tta 121993
Ġordnat 121993
wer 121970
ĠLP 121967
hÃ¶j 121944
Ġpund 121918
Ġbeskrev 121913
ĠObservera 121878
akon 121861
rÃ¤dde 121853
Ġrapportera 121790
ĠbedÃ¶mas 121773
ĠReinfeldt 121748
vald 121737
ĠunderrÃ¤tt 121735
Ġkonferensen 121732
Ġstilen 121723
Ġbeviljas 121710
Ġskickades 121705
ĠSY 121703
ĠDE 121701
ĠÃ¶nskvÃ¤rd 121684
styrelse 121682
ĠWolf 121682
oph 121675
ĠWallin 121672
ĠFace 121660
Ġpasta 121651
Ġyrket 121645
ĠMAR 121639
ĠHÃ¤rnÃ¶sand 121638
Ġsimma 121638
ĠjÃ¤rnvÃ¤gen 121630
ĠElias 121624
Ġmeriterande 121623
Ġkunga 121587
Ġriksdags 121587
ķ 121576
Ġfunktionen 121559
ĠKil 121551
ĠTrÃ¤ 121544
Ġavsugning 121542
Ġskyltar 121542
ĠvÃ¥ 121508
ĠArvid 121498
ĠMelodifestivalen 121497
ĠtillÃ¤mp 121491
makten 121484
ĠMellanÃ¶stern 121477
Ġfixat 121456
avÃ¤gen 121450
ĠÃ¥tn 121441
ĠsjÃ¤lvklara 121430
ĠStud 121406
Ġpublicera 121389
ĠCentern 121372
Ġsymptom 121347
ĠstÃ¤ng 121306
Ġskorna 121299
ante 121295
Ġklagar 121283
grupperna 121275
skontor 121273
ĠFÃ¶renta 121270
lÃ¶f 121266
ĠuppgÃ¥ 121260
Ġuppskattning 121255
handlingen 121254
iljan 121244
ĠHelge 121223
ĠÃ¶ppnades 121217
ĠmÃ¶ 121209
ĠfÃ¶rny 121172
Ġotur 121160
ĠlÃ¶senord 121159
slÃ¤ 121136
ĠlÃ¤gret 121115
itch 121109
ĠNorrbottens 121109
kyl 121078
mund 121078
ĠOmrÃ¥det 121037
ĠÃ¥talade 121012
ĠArvika 121010
ĠTjeck 121009
ĠBohuslÃ¤n 121006
lÃ¶n 121004
GG 121000
Ġtrupper 120969
skning 120952
ĠmilitÃ¤rt 120944
ĠRoyal 120939
Ġskil 120913
Ġansikt 120895
ĠfÃ¶rts 120888
Ġark 120860
Ġskildrar 120845
Ġande 120840
ĠlÃ¥ngsiktig 120839
ĠPolitik 120836
ĠdrÃ¶mma 120834
Ġanpassning 120819
ĠEli 120812
Ġspegel 120805
Ġsto 120793
grepp 120779
test 120767
ĠfÃ¶rnÃ¤m 120767
Ġgang 120767
golv 120754
ĠFranc 120711
ĠEK 120708
ĠEld 120704
ĠFÃ¤rg 120700
Ġjurist 120700
Ġaktien 120679
isser 120677
Ġnyckeln 120671
ĠSÃ¥ng 120668
ĠChicago 120650
Ġattraktiva 120568
Ġnoterade 120552
Ġhungrig 120537
ĠtÃ¤ta 120529
ĠSver 120528
bÃ¶rd 120502
Ġhygg 120502
das 120500
ĠFÃ¶rsÃ¤kringskassan 120499
alerna 120498
Ġplanerad 120492
Ġfingrar 120491
oke 120484
Ġkult 120481
Ã¥ll 120479
ĠRumÃ¤nien 120455
ĠomstÃ¤ndigheterna 120435
sett 120423
ĠAz 120411
66 120387
Ġjobbig 120385
Ġsexig 120369
Ġsned 120366
ĠersÃ¤ttas 120356
lock 120348
Ġskicklig 120306
ĠDAG 120304
ĠFager 120301
Ġporslin 120298
ollen 120296
ĠregissÃ¶r 120290
ĠSN 120280
placering 120245
Ġmotsatsen 120236
yndigheten 120221
strÃ¤ning 120195
ĠmÃ¤rklig 120194
DS 120187
ĠSamt 120182
atÃ¶rer 120173
Ġrubb 120168
jol 120134
Ġkvartsfinal 120105
Ġpek 120084
iala 120066
rix 120063
bitar 120059
angel 120039
Ã¤genhet 120029
ĠFyr 120022
34 120013
ĠbjÃ¶rn 120011
ufvud 120003
Ġfra 120003
ĠTisdag 120001
Ġreserver 119993
Ġkostym 119990
Ġinneha 119989
ĠgÃ¤rning 119979
Ġregleras 119975
Ġirriterad 119951
ĠKvinn 119942
ĠMÃ¥tt 119940
ĠCamp 119932
Ġplikt 119928
Ġresterande 119919
Ġunderteck 119910
Ġdiskret 119894
Ġest 119892
Ġtillbaks 119886
si 119878
Ġglans 119878
Ġsuga 119862
ĠPengarna 119856
ĠBMW 119852
Ġgransk 119851
Ġkonstverk 119844
Ġtestar 119832
ĠUtskottet 119826
Ġmaskinen 119819
Ġblandar 119812
Ġdominerar 119798
stationer 119783
Ġgood 119766
fÃ¶re 119765
Ġaxeln 119755
gavs 119745
ĠenastÃ¥ende 119740
ĠmÃ¥nads 119725
strafik 119682
Ġskum 119680
vÃ¤xtart 119679
ĠfÃ¶retagens 119675
Ġkapit 119665
ĠanmÃ¤lda 119659
Ġsyre 119658
Ġvillor 119638
ĠRÃ¶nn 119621
ĠKer 119620
Ġpan 119616
Ġevigt 119613
Ġzon 119610
Ġkonstiga 119593
Ġrann 119585
sskatten 119570
itiv 119566
ĠfÃ¶rtjÃ¤n 119544
Ġrullade 119538
brottet 119537
ĠframfÃ¶ra 119528
Ġdansar 119518
Ġsamlad 119503
deln 119497
givna 119491
ĠÃħtminstone 119487
Ġbortaplan 119485
ĠVÃ¤gen 119484
ĠBruk 119461
Ġkaka 119457
ĠtÃ¥r 119450
ĠÃ¤gar 119427
ĠPrag 119420
Ġboenden 119416
Ġnotera 119408
ĠModer 119387
ĠbegrÃ¤nsning 119374
ulen 119368
enom 119355
ĠsÃ¤nker 119312
ĠSkandinavien 119303
Ġbergig 119300
ĠSÃ¥som 119290
Ġuppskattad 119255
Ġskrivna 119246
Ġkastrull 119244
Ġetabl 119234
ĠvÃ¤nliga 119210
atern 119201
Ġstudenterna 119195
ĠtjÃ¤nsterna 119191
ĠHIF 119162
zen 119156
Ã¤rare 119147
unge 119110
ĠNordstrÃ¶m 119102
ĠLog 119097
Ġolivolja 119089
Ġkommunstyrelsens 119079
Ã¥get 119061
lam 119059
Ġromantisk 119031
ĠNiclas 119023
ĠFÃ¶rmodligen 119003
Ġve 119002
Ġmedborgar 118978
ĠKvarn 118936
spress 118928
ĠBjur 118908
zy 118896
ĠVeckans 118885
ĠÃ¶k 118870
ologer 118861
Ġlamm 118856
vandring 118853
stÃ¤lla 118839
Ġreder 118816
any 118815
nor 118812
Ġstar 118800
inerade 118773
Ġkoncentrera 118770
Ġtvingar 118769
ibel 118749
ĠScott 118734
mÃ¥ 118713
ĠbehÃ¥ller 118704
ĠStock 118702
Ġindustrier 118653
elever 118643
ĠPeking 118643
Ġslant 118642
ĠGÃ¶t 118639
Ġstartades 118636
Ġdugg 118629
ĠLokala 118612
fal 118606
ĠBusiness 118600
ĠframstÃ¥ende 118588
gener 118586
savgiften 118561
Ġfemma 118545
ĠJud 118530
ĠbelÃ¤gg 118522
skyddet 118512
Ġhigh 118507
ĠWilliams 118501
ĠvÃ¤nstern 118501
Ġhemiboreala 118500
Ġbind 118487
Ġbutikerna 118474
derad 118461
Ġutomordentligt 118460
ISK 118455
Ġlagens 118455
Ġansluter 118451
è 118403
Ġminim 118401
ĠCall 118392
Ġdepartement 118388
Ġprestera 118380
Ġbos 118379
ĠMogen 118369
ĠVerksamhet 118339
Ġmid 118327
Ã¥rige 118315
Ġtalare 118309
Ġinledningen 118299
Ġspark 118292
ĠPetra 118287
Ġutformas 118281
Ġende 118273
Ġnumer 118273
ĠGotlands 118272
itel 118260
Ġledarna 118260
EG 118242
ĠvÃ¥ldsamma 118238
ĠÃ¶nsk 118238
ĭ 118238
Ġlas 118229
Ġkomponenter 118208
ĠJur 118206
Ġkampanjer 118196
undersÃ¶kningen 118194
Ġsvensken 118187
Ġskadar 118185
shistoria 118167
ĠfÃ¶rakt 118158
ĠDrygt 118153
Ġotrolig 118133
Ġadressen 118124
ĠgrÃ¤dd 118118
Ġordnings 118101
lÃ¤get 118098
ĠTjeckien 118087
ĠvÃ¤gledning 118085
Ġorimligt 118083
hÃ¶lls 118059
Ġserverar 118046
ĠUpplands 118032
Ġjournalisten 118032
ĠKlimat 118017
ax 117999
ĠKvÃ¤ll 117989
ĠvÃ¤ll 117988
ĠSynd 117948
roth 117943
ĠskÃ¥nska 117943
ĠfÃ¶rordning 117928
direkt 117923
Ġantik 117922
Ġadministrativ 117917
ĠFokus 117914
ĠEnda 117912
ĠfÃ¶rskolor 117912
lever 117911
rÃ¤dare 117908
visar 117898
Ġprocentenheter 117891
ĠuppnÃ¥s 117870
ely 117846
ĠPassar 117823
ĠBorgen 117814
Ġkrigs 117812
Ġtjuv 117806
Ġarrangera 117804
Ġspet 117804
ĠLuft 117796
Ġsprids 117796
skick 117785
ĠkommunalrÃ¥d 117745
ĠÃ¥beropa 117702
ĠVerk 117686
ĠblÃ¥ste 117685
Ġhylla 117683
ĠStorm 117677
ĠLes 117672
Ġgri 117672
Ġmuslimska 117671
rÃ¤kningen 117657
mÃ¤rke 117651
ĠupprÃ¤tta 117650
55 117644
ĠÃħre 117639
Ã¤ttningen 117628
Ġopp 117617
bruket 117591
ĠupphÃ¤v 117590
ijer 117576
splanering 117571
ĠRent 117562
Ġminskas 117556
ĠgÃ¤r 117546
ĠfÃ¶rnekar 117539
ĠSist 117536
ĠKomm 117526
Ġsamtycke 117519
gg 117512
osten 117502
Ġnyfikna 117502
Ġtall 117491
Ġpolicy 117473
Ġmaximalt 117471
illen 117464
onia 117460
Ġ220 117435
ĠZe 117423
kÃ¶tt 117419
Ġanskaff 117410
Ã¶va 117389
stÃ¤der 117387
havande 117376
ĠfÃ¶rhÃ¥llningssÃ¤tt 117364
tex 117351
Ġrikta 117319
STER 117312
ĠmÃ¤rket 117306
ĠhÃ¤nfÃ¶r 117291
ĠUrban 117289
ĠtÃ¤vlade 117285
ĠSkatteverket 117262
ydda 117223
ĠPetersson 117215
ĠVegas 117207
ĠKON 117196
GIF 117185
Ġgraviditet 117162
Ġinbju 117154
ĠstjÃ¤l 117142
Ġinsidan 117139
Ġsjunka 117131
ĠvÃ¤skan 117126
ĠbestÃ¤llde 117118
ĠTore 117117
mÃ¥n 117116
ĠCas 117113
Ġbeford 117099
Ġkloka 117082
ĠhandlÃ¤ggning 117065
Ġorsakade 117041
sporten 117039
ĠMilf 117035
ĠKonsert 117011
Ã¦ 116994
Ġkonkurrera 116989
Ġstadsdelen 116988
sledning 116986
ĠExpressens 116970
Ġmotivering 116970
Ġaut 116951
ĠRebecca 116946
yrka 116945
Ġpussel 116944
ĠDrottning 116940
Ġbliva 116935
ĠsocialtjÃ¤nsten 116927
ĠblÃ¶t 116908
polis 116897
ĠbegÃ¤rde 116888
Ġlitar 116879
ĠslÃ¤t 116876
Ġrop 116872
Ġsamord 116802
Ã¶der 116782
Ġhistor 116777
ĠhÃ¶n 116774
Ġinstallera 116772
ĠKval 116767
Ġtretton 116753
ĠKajsa 116733
seg 116732
ĠuppsÃ¤ttning 116723
ĠPlat 116713
ĠmarknadsfÃ¶r 116688
ĠÃĸstermalm 116632
Ġankomst 116601
ĠLyssna 116595
stjÃ¤rna 116581
Ġrec 116579
skom 116575
Ġbokning 116568
sbok 116534
sfÃ¶rhÃ¥llanden 116531
ĠkrÃ¤vt 116522
celler 116518
Ġflexibel 116509
sters 116486
ĠutbredningsomrÃ¥de 116485
Ġnickade 116479
Ġkulle 116476
Ġringt 116457
nal 116442
Ã¤rn 116430
Ġkulturer 116424
jour 116409
Ġflydde 116394
sbehov 116385
avtalet 116379
wich 116372
uellt 116364
skedet 116343
ĠarbetslÃ¶s 116340
spels 116334
sfÃ¶rmÃ¥ga 116332
Ġnett 116327
Ġrepresentera 116303
Ġstru 116271
ĠBorde 116266
Ġbol 116256
Ġmedverkat 116253
ĠTan 116243
dis 116235
ĠÃ¥klag 116231
Ġsvett 116227
Ġflyter 116216
Ã¤ta 116202
Ġmini 116201
Ġkropps 116195
Ã¶lja 116191
Ġinstitutionen 116189
Ġskakade 116187
Ġbam 116180
ĠfÃ¶rbÃ¤ttrad 116162
Ġ112 116151
igar 116133
ĠvÃ¥ldet 116117
Ġkaffet 116116
Ġilska 116107
Ġhelsingborg 116104
ydde 116103
Ġbesparingar 116082
Ĺ 116075
fort 116066
ĠGlad 116056
ĠfÃ¶ds 116054
ĠsjÃ¤lvstÃ¤ndig 116051
verkan 116046
visade 116044
ĠtillhÃ¶ra 116011
ĠHouse 116010
Ġsmidig 116000
Ġhugg 115969
ĠTina 115964
ĠKronor 115949
Ġfp 115944
ĠvÃ¥gat 115937
ĠrÃ¶strÃ¤tt 115935
ÃĸPING 115929
IB 115914
ete 115911
lers 115909
Ġbem 115876
Ġavsett 115845
Ġschemat 115845
erry 115842
Ġtrappa 115831
hugg 115822
Ġfilter 115817
ĠBestÃ¤ll 115814
ĠerbjÃ¶d 115806
ĠomÃ¶jlig 115805
Ġ1918 115796
belopp 115764
rif 115751
ĠmÃ¤nskligheten 115751
sledaren 115747
Ġfolks 115727
Ġgrundade 115719
ĠHenriksson 115715
Ġhittas 115706
Ġsemifinalen 115688
ĠRoss 115684
ĠFÃ¶rbund 115657
ĠÃ¶vertygade 115650
amÃ¥l 115630
rÃ¤nta 115601
ĠKÃ¤lla 115596
ĠEkonom 115581
ĠKostnad 115560
Ġpenis 115528
Ġmediciner 115522
ĠrÃ¶dgrÃ¶na 115522
Ġgenerationen 115514
ĠPutin 115480
ERS 115461
Ġbibel 115459
verkstad 115450
ĠfrÃ¥g 115441
Ġdiskuterade 115436
ĠvÃ¤rna 115422
ssekreterare 115418
deras 115416
irig 115416
skin 115415
Ġsanna 115394
ĠsnÃ¶r 115375
iam 115370
Ġblandskog 115355
slokaler 115351
ĠHÃ¤ls 115351
Ġbokslut 115338
ĠhÃ¶jas 115337
Ġlyckat 115316
Ġdistansen 115302
fylld 115299
etar 115293
ebr 115291
ĠViking 115283
ĠbekrÃ¤ft 115271
alag 115243
Ġboendet 115222
ĠbyrÃ¥krat 115221
mÃ¤rken 115219
Ġinkommit 115201
Ã¤genheter 115199
Ġfotografier 115189
ĠSPF 115188
Ġsekr 115185
ĠCeder 115177
snitt 115174
ĠMig 115161
urar 115146
Ġinleda 115140
ĠhÃ¤v 115121
Ã¶det 115111
ĠSMHI 115106
samlingen 115099
ĠUtt 115096
Ġskuggan 115068
Ġfordonet 115064
hÃ¶jning 115059
Ã¶pp 115053
ĠÃĸrjan 115051
ĠfÃ¶rklaringen 115049
ĠÂ¶ 115035
ĠRosa 115004
ĠLycka 114961
ĠTyresÃ¶ 114961
pin 114940
ĠsmÃ¤lt 114938
Ġskul 114934
Ġflod 114915
Ġunderstryker 114912
ĠFab 114910
ĠlÃ¥ 114909
Ġproduceras 114906
ivare 114871
stÃ¥r 114870
well 114867
ocial 114861
Ġour 114855
ĠFjÃ¤ll 114843
Ġsolidaritet 114840
Ġ240 114828
ĠPs 114821
familjen 114815
ĠDI 114796
Ġintrycket 114793
Ġfastnar 114792
Ġutrymmen 114789
Ġexpedition 114787
Ġ360 114748
Ġpartners 114748
ĠRiksdag 114745
ĠavslÃ¶jade 114743
ĠMÃ¤rk 114724
Ġnarkotikabrott 114722
Ġpopularitet 114719
Ġobet 114710
husets 114694
slÃ¤pp 114673
teras 114657
ĠutfÃ¶rande 114657
ekon 114645
Ġtrakasserier 114620
ĠStÃ¥l 114602
design 114584
ĠWell 114576
ĠLA 114569
urt 114564
Ġskapades 114559
Ġeskorter 114552
Ġkakel 114533
ĠSub 114530
Ã©e 114514
Ġprick 114490
ĠÃ¤ndamÃ¥let 114464
ĠKoll 114450
ĠJerusalem 114432
Ã¤nta 114399
ĠByggnad 114375
Ġkommunernas 114369
Ġmyt 114345
Ġhalver 114327
sfl 114317
Ġinlett 114294
undersÃ¶kningar 114289
ĠrÃ¥tt 114287
krit 114277
ĠSÃ¥l 114272
ava 114264
ĠMindre 114261
ĠGrÃ¥ 114257
sfall 114243
ĠumeÃ¥ 114243
Ġupplysning 114216
Ġmobb 114212
ĠsprÃ¥ 114209
Ġisol 114205
ĠKroatien 114190
ckte 114167
ĠJaha 114161
Ġkalender 114148
ĠMunk 114144
ĠEdward 114141
ĠfÃ¶rbjuda 114140
uch 114127
Ġlanda 114123
Ġbist 114120
Ġinrym 114119
elig 114114
Ġbjudit 114103
Ġkines 114093
ÃħS 114091
ĠUnibet 114077
Ġjacka 114065
etiska 114052
ĠlÃ¶pning 114031
sbro 114011
Ġnor 114010
slivet 113965
ĠAndelen 113945
ĠLang 113943
Ġpotentiella 113942
Ġkemi 113938
fem 113936
ĠNordens 113923
index 113917
Ġ5000 113911
Ġschema 113906
eland 113893
Ġvariation 113890
rens 113880
post 113856
byggda 113842
ĠJA 113830
Ġkommunalt 113829
Ġutbrott 113826
ullar 113814
Ã¤mma 113791
ĠbemÃ¶tande 113784
Ġresurs 113774
spriset 113756
ĠSystemet 113755
ĠinstÃ¤lld 113751
Ġschack 113745
BS 113730
gning 113715
ĠavgÃ¥ 113709
Ġfinansminister 113691
ĠNil 113676
riktad 113648
riker 113613
buss 113580
ĠGoda 113570
Ġ1936 113567
Ġomval 113567
ĠTrygg 113531
ĠtvÃ¤rs 113520
ĠRod 113516
Ġgenomsnittet 113505
registr 113501
Ġorsakat 113493
ĠSwedbank 113478
Ġakademiker 113478
ĠAbb 113469
Ġavgiften 113469
ĠVen 113462
ĠpÃ¥stÃ¥enden 113462
ĠhjÃ¤lpen 113453
ĠemellanÃ¥t 113445
Ń 113428
alle 113412
Ġhusdjur 113406
ĠSune 113400
Ġsammans 113392
Ġgrundlag 113387
Ġkik 113369
Ġvetenskaplig 113364
Ġskugga 113363
dav 113360
savtalet 113359
jul 113313
ĠModern 113310
Ġklocka 113303
ĠLine 113287
ĠhÃ¤lsan 113286
Ġnyin 113284
Ġsvin 113269
ysning 113262
ĠSak 113251
ĠArtens 113218
utrust 113216
Ġpast 113215
Ġvecko 113204
ĠmÃ¶tes 113198
ĠRapport 113196
snÃ¤t 113193
Ġuppdatering 113175
datum 113163
Ġtrosor 113138
Ġtwitter 113104
Ġomtal 113082
ĠfÃ¶rtjÃ¤nst 113068
ĠsÃ¤llskapet 113060
Ġformul 113051
Ġrita 113046
lÃ¶v 113035
rÃ¤ning 113029
ĠtrÃ¥ngt 113026
Ġque 113023
Ġ103 113016
Ġpartis 113000
ĠGru 112990
Ġutk 112988
Ġkritiskt 112984
ĠvÃ¤rdefullt 112983
ĠstÃ¤mman 112959
Ġservicen 112928
Ġventilation 112895
ĠGul 112875
ĠLudvika 112870
85 112862
liggande 112843
ĠAgnes 112843
Ġutse 112830
ĠNisse 112814
Ġriktas 112804
sider 112800
ĠfÃ¶rlÃ¥t 112791
ival 112783
ĠerkÃ¤nde 112762
Ġstressad 112742
sklubb 112741
Ġsensation 112724
Ġhemland 112704
Ġ104 112698
eser 112683
olitiska 112683
ornet 112682
ĠupphÃ¶ra 112672
Ġkrogen 112667
Ġfriskt 112661
ĠPlanen 112640
Ã¤mne 112620
splikt 112619
Ġsystematiskt 112617
ville 112590
lÃ¤ggare 112587
Ġfinansieras 112581
Ġbacka 112554
Ġfelaktig 112509
visningen 112490
ĠOlov 112474
Ġps 112469
ĠBio 112462
ĠFelix 112441
Ġrykten 112425
ĠÃ¶verlevnad 112418
Ġdelaktighet 112405
orde 112400
ĠHÃ¶st 112394
ĠOld 112365
tak 112349
smarknaden 112338
ĠHann 112314
Ġutflykt 112313
ĠMorgon 112310
sfullmÃ¤ktige 112294
Ġsymboler 112286
eus 112282
olit 112274
ĠomsÃ¤ttningen 112264
fÃ¥ng 112252
Ġhomosexuella 112246
ĠTropiskt 112243
ĠMicrosoft 112239
ĠnÃ¤rmsta 112227
Ġkock 112213
ĠEmelie 112211
Ġkatolska 112193
ĠSouth 112191
ĠfÃ¶delse 112183
ĠLinnea 112179
ffÃ¤r 112177
Ġparlament 112161
Ġikapp 112152
ĠKons 112136
Ġdramat 112124
Ġrut 112121
ĠpjÃ¤sen 112112
Ġpack 112101
Ġkrasch 112091
Ġvandrar 112085
Ġprovisor 112060
ĠÃĦl 112055
Ġborgen 112050
Ġafton 112048
givit 112042
ĠAmerican 112039
Ġslutliga 112039
ows 112037
GB 112036
ĠSirius 112020
ĠChat 112006
Ġau 112000
Ġlyr 111980
Ġetapp 111975
sbranschen 111965
sstat 111947
Ġparallellt 111946
ĠvÃ¥rens 111941
ĠkÃ¤llare 111922
Ġgif 111915
Ġrespons 111914
Ġsprungit 111891
backa 111885
Ġfalsk 111884
Ġkonsekvent 111883
ĠEvert 111866
olan 111836
Ġflyt 111817
Ġkomplicerade 111817
ĠpÃ¥tal 111805
ĠExakt 111804
ĠHÃ¤ssleholm 111794
ĠABF 111786
rycket 111753
striden 111745
Ġdomar 111744
Ġreagerade 111741
rike 111735
uppen 111728
ĠLunch 111711
ĠhÃ¶gskole 111711
Ġkostat 111706
ĠmÃ¶r 111706
Ġloppis 111695
Ġreferenser 111689
ĠÃ¶vertyga 111678
Ġyt 111667
ĠÃħby 111664
ĠfÃ¶rvÃ¥nande 111656
Ġkrypa 111631
Ġana 111625
Ġblif 111622
Ġelektroniska 111609
jande 111604
ĠkrÃ¤vas 111598
ĠutlÃ¥tande 111580
ekreterare 111567
ĠinnebÃ¶rd 111530
bostad 111529
Ġotill 111519
Ġtypiska 111495
ĠStrÃ¤ngnÃ¤s 111488
Ġprinsessan 111486
ĠfÃ¶rlÃ¤nga 111482
ostad 111481
ĠÃ¶verstiger 111479
Ġsaga 111470
ĠAnsÃ¶k 111468
Ġlagstift 111467
ĠmÃ¤klare 111464
ĠStaten 111455
ĠinfÃ¶rs 111454
enta 111434
Ġbehandlade 111434
Ġ225 111430
ĠfÃ¶rbannad 111411
Ġarbetstagare 111397
sperspektiv 111396
Ġgrabbarna 111395
ĠfÃ¤rdigheter 111388
ĠBow 111387
ĠvÃ¥rdcentral 111337
Ġrekrytera 111329
villkor 111317
ĠnÃ¤tt 111314
Ġtaktik 111306
strafiken 111298
ĠRisk 111288
ĠMoa 111279
mets 111274
ĠRi 111270
Ġtomater 111270
bott 111259
ĠnaturvÃ¥rd 111259
ĠCarolina 111254
ĠWh 111245
artade 111234
ĠLy 111228
ĠLÃ¥ter 111227
Ġsummor 111219
byggnader 111217
Ġtillkommit 111214
spa 111208
ĠtillrÃ¤ckliga 111206
Ġstyrande 111201
okrat 111191
Ġringen 111178
ĠdÃ¤rom 111159
ious 111157
ĠÃ¥lderdom 111155
jern 111146
ĠLeg 111140
ĠOliver 111113
sbruk 111104
Ġavbrott 111096
Ġteoretiska 111089
Ġskrot 111062
klÃ¤dd 111036
ãĤ 111036
ĠfÃ¤ste 111036
Ġinspel 111031
isson 111029
nandet 111025
Ã¤llen 111024
ĠAvesta 111014
ĠLer 111013
[...]
